{"<|endoftext|>":0,"!":1,"\"":2,"#":3,"$":4,"%":5,"&":6,"'":7,"(":8,")":9,"*":10,"+":11,",":12,"-":13,".":14,"/":15,"0":16,"1":17,"2":18,"3":19,"4":20,"5":21,"6":22,"7":23,"8":24,"9":25,":":26,";":27,"<":28,"=":29,">":30,"?":31,"@":32,"A":33,"B":34,"C":35,"D":36,"E":37,"F":38,"G":39,"H":40,"I":41,"J":42,"K":43,"L":44,"M":45,"N":46,"O":47,"P":48,"Q":49,"R":50,"S":51,"T":52,"U":53,"V":54,"W":55,"X":56,"Y":57,"Z":58,"[":59,"\\":60,"]":61,"^":62,"_":63,"`":64,"a":65,"b":66,"c":67,"d":68,"e":69,"f":70,"g":71,"h":72,"i":73,"j":74,"k":75,"l":76,"m":77,"n":78,"o":79,"p":80,"q":81,"r":82,"s":83,"t":84,"u":85,"v":86,"w":87,"x":88,"y":89,"z":90,"{":91,"|":92,"}":93,"~":94,"¡":95,"¢":96,"£":97,"¤":98,"¥":99,"¦":100,"§":101,"¨":102,"©":103,"ª":104,"«":105,"¬":106,"®":107,"¯":108,"°":109,"±":110,"²":111,"³":112,"´":113,"µ":114,"¶":115,"·":116,"¸":117,"¹":118,"º":119,"»":120,"¼":121,"½":122,"¾":123,"¿":124,"À":125,"Á":126,"Â":127,"Ã":128,"Ä":129,"Å":130,"Æ":131,"Ç":132,"È":133,"É":134,"Ê":135,"Ë":136,"Ì":137,"Í":138,"Î":139,"Ï":140,"Ð":141,"Ñ":142,"Ò":143,"Ó":144,"Ô":145,"Õ":146,"Ö":147,"×":148,"Ø":149,"Ù":150,"Ú":151,"Û":152,"Ü":153,"Ý":154,"Þ":155,"ß":156,"à":157,"á":158,"â":159,"ã":160,"ä":161,"å":162,"æ":163,"ç":164,"è":165,"é":166,"ê":167,"ë":168,"ì":169,"í":170,"î":171,"ï":172,"ð":173,"ñ":174,"ò":175,"ó":176,"ô":177,"õ":178,"ö":179,"÷":180,"ø":181,"ù":182,"ú":183,"û":184,"ü":185,"ý":186,"þ":187,"ÿ":188,"Ā":189,"ā":190,"Ă":191,"ă":192,"Ą":193,"ą":194,"Ć":195,"ć":196,"Ĉ":197,"ĉ":198,"Ċ":199,"ċ":200,"Č":201,"č":202,"Ď":203,"ď":204,"Đ":205,"đ":206,"Ē":207,"ē":208,"Ĕ":209,"ĕ":210,"Ė":211,"ė":212,"Ę":213,"ę":214,"Ě":215,"ě":216,"Ĝ":217,"ĝ":218,"Ğ":219,"ğ":220,"Ġ":221,"ġ":222,"Ģ":223,"ģ":224,"Ĥ":225,"ĥ":226,"Ħ":227,"ħ":228,"Ĩ":229,"ĩ":230,"Ī":231,"ī":232,"Ĭ":233,"ĭ":234,"Į":235,"į":236,"İ":237,"ı":238,"Ĳ":239,"ĳ":240,"Ĵ":241,"ĵ":242,"Ķ":243,"ķ":244,"ĸ":245,"Ĺ":246,"ĺ":247,"Ļ":248,"ļ":249,"Ľ":250,"ľ":251,"Ŀ":252,"ŀ":253,"Ł":254,"ł":255,"Ń":256,"Ġt":257,"in":258,"he":259,"Ġa":260,"ou":261,"Ġs":262,"re":263,"Ġthe":264,"Ġw":265,"on":266,"Ġd":267,"Ġy":268,"Ġi":269,"Ġm":270,"Ġyou":271,"at":272,"Ġf":273,"Ġb":274,"ing":275,"er":276,"Ġc":277,"ll":278,"an":279,"or":280,"Ġo":281,"es":282,"Ġl":283,"Ġh":284,"Ġof":285,"en":286,"Ġto":287,"Ġp":288,"Ġin":289,"Ġn":290,"Ġ[":291,"ed":292,"it":293,"ar":294,"st":295,"Ġan":296,"Ġth":297,"Ġyour":298,"se":299,"Ġde":300,"Ġg":301,"ver":302,"ro":303,"Ġe":304,"âĢ":305,"ch":306,"is":307,"Ġand":308,"ad":309,"al":310,"ay":311,"Ġhe":312,"ve":313,"Ġli":314,"ion":315,"ic":316,"ow":317,"le":318,"id":319,"Ġmy":320,"gh":321,"Ġbe":322,"as":323,"Ġre":324,"us":325,"od":326,"Ġk":327,"me":328,"Ġst":329,"Ġon":330,"ac":331,"Ġit":332,"Ġno":333,"ill":334,"ath":335,"Ġis":336,"ld":337,"ri":338,"Ġme":339,"Ġfor":340,"Ġse":341,"Ġbl":342,"un":343,"ght":344,"ain":345,"ur":346,"ith":347,"Ġdeath":348,"ak":349,"orus":350,"chorus":351,"verse":352,"Ġthat":353,"Ġall":354,"ent":355,"Ġne":356,"out":357,"ant":358,"ge":359,"Ġwith":360,"fe":361,"Ġj":362,"Ġr":363,"ce":364,"ind":365,"all":366,"ont":367,"ess":368,"am":369,"Ġwh":370,"il":371,"ust":372,"ide":373,"et":374,"om":375,"Ġdi":376,"uc":377,"th":378,"Ġwe":379,"ood":380,"Ġso":381,"ate":382,"Ġv":383,"and":384,"ation":385,"Ġsh":386,"Ġfe":387,"ir":388,"Ġblood":389,"ot":390,"Ġfro":391,"ut":392,"âĢĻ":393,"Ġlife":394,"ight":395,"ast":396,"âĢħ":397,"ity":398,"im":399,"Ġ1":400,"Ġas":401,"ly":402,"Ġ2":403,"Ġfrom":404,"Ġthis":405,"Ġwill":406,"Ġlo":407,"em":408,"end":409,"rou":410,"Ġsou":411,"Ġwas":412,"ore":413,"Ġsp":414,"Ġim":415,"uck":416,"ave":417,"ct":418,"ure":419,"ann":420,"Ġch":421,"ake":422,"Ġsoul":423,"ol":424,"Ġins":425,"Ġkn":426,"ep":427,"Ġwar":428,"lead":429,"ter":430,"Ġsee":431,"Ġout":432,"Ġgod":433,"Ġfuck":434,"Ġat":435,"Ġmind":436,"ime":437,"Ġwor":438,"est":439,"Ġun":440,"Ġey":441,"Ġdie":442,"ap":443,"um":444,"ace":445,"one":446,"ul":447,"Ġever":448,"res":449,"urn":450,"ack":451,"Ġnever":452,"Ġits":453,"Ġtime":454,"Ġco":455,"her":456,"Ġsc":457,"Ġwhe":458,"ine":459,"Ġdead":460,"Ġeyes":461,"Ġhell":462,"Ġjust":463,"ef":464,"Ġhis":465,"Ġwhat":466,"up":467,"Ġsl":468,"ive":469,"less":470,"ĠĠ":471,"ream":472,"ĠâĢ":473,"Ġ-":474,"Ġare":475,"Ġway":476,"Ġcan":477,"ig":478,"nd":479,"Ġkill":480,"Ġdo":481,"ame":482,"art":483,"Ġfl":484,"rough":485,"Ġcont":486,"Ġthrough":487,"el":488,"Ġcon":489,"Ġaw":490,"Ġex":491,"Ġking":492,"Ġevery":493,"Ġnow":494,"ist":495,"Ġknow":496,"Ġend":497,"ould":498,"annem":499,"av":500,"Ġhannem":501,"Ġpain":502,"ry":503,"Ġgo":504,"Ġab":505,"Ġwant":506,"ok":507,"op":508,"Ġpl":509,"lf":510,"Ġsu":511,"thing":512,"Ġhanneman":513,"are":514,"Ġint":515,"our":516,"Ġman":517,"Ġworld":518,"ke":519,"Ġal":520,"Ġnot":521,"ies":522,"ong":523,"Ġby":524,"Ġcant":525,"Ġone":526,"br":527,"Ġam":528,"own":529,"Ġill":530,"Ġbr":531,"ort":532,"Ġtake":533,"Ġdis":534,"Ġup":535,"ers":536,"ĠâĢľ":537,"Ġcom":538,"Ġdr":539,"ard":540,"Ġwhen":541,"ence":542,"ice":543,"Ġri":544,"Ġbre":545,"eff":546,"au":547,"red":548,"Ġyoure":549,"Ġhim":550,"ink":551,"Ġ3":552,"Ġag":553,"ays":554,"Ġfucking":555,"Ġhave":556,"Ġfeel":557,"ip":558,"Ġburn":559,"ous":560,"Ġsat":561,"Ġpr":562,"Ġscream":563,"Ġho":564,"Ġtr":565,"âĢĿ":566,"Ġlike":567,"ict":568,"Ġjeff":569,"ag":570,"ait":571,"Ġdown":572,"Ġbut":573,"self":574,"Ġev":575,"os":576,"Ġnight":577,"ions":578,"Ġinsan":579,"Ġcontro":580,"Ġar":581,"Ġtheir":582,"Ġle":583,"row":584,"Ġor":585,"Ġthey":586,"Ġlet":587,"ose":588,"Ġwat":589,"idge":590,"Ġvi":591,"Ġinside":592,"bridge":593,"pt":594,"Ġsk":595,"if":596,"ings":597,"ance":598,"Ġpro":599,"ally":600,"Ġliv":601,"ass":602,"Ġcontrol":603,"ise":604,"oc":605,"aw":606,"Ġdont":607,"Ġro":608,"ans":609,"ire":610,"Ġus":611,"ick":612,"orn":613,"Ġhate":614,"Ġpre":615,"Ġcome":616,"qu":617,"Ġcl":618,"esh":619,"str":620,"Ġflesh":621,"Ġwatch":622,"der":623,"ren":624,"Ġyoull":625,"ress":626,"Ġface":627,"Ġhas":628,"Ġneed":629,"Ġany":630,"Ġreal":631,"Ġstr":632,"ect":633,"Ġsw":634,"Ġdec":635,"Ġlook":636,"Ġen":637,"Ġgr":638,"Ġem":639,"iz":640,"ting":641,"ree":642,"Ġfight":643,"ab":644,"ment":645,"int":646,"Ġwould":647,"Ġbeg":648,"Ġble":649,"Ġinto":650,"Ġagain":651,"Ġbleed":652,"arch":653,"ull":654,"Ġsur":655,"Ġhow":656,"Ġbec":657,"Ġonly":658,"Ġinsane":659,"ach":660,"Ġmore":661,"ated":662,"Ġob":663,"Ġthink":664,"alk":665,"Ġlive":666,"Ġrel":667,"ness":668,"ying":669,"ear":670,"Ġthere":671,"Ġfall":672,"Ġinf":673,"Ġhead":674,"pp":675,"ild":676,"ud":677,"Ġdeep":678,"Ġfeed":679,"Ġaway":680,"aid":681,"mb":682,"ror":683,"ause":684,"Ġviol":685,"Ġhad":686,"Ġdem":687,"Ġget":688,"icide":689,"tern":690,"age":691,"ins":692,"Ġbod":693,"Ġevil":694,"pre":695,"ound":696,"ates":697,"Ġpe":698,"Ġthou":699,"ade":700,"Ġheav":701,"ental":702,"round":703,"Ġplay":704,"nt":705,"Ġfire":706,"Ġhun":707,"Ġvict":708,"uman":709,"ther":710,"Ġcr":711,"ord":712,"akes":713,"Ġdream":714,"Ġhand":715,"Ġwere":716,"Ġawait":717,"ie":718,"Ġdes":719,"Ġdid":720,"Ġetern":721,"Ġhere":722,"Ġnew":723,"ign":724,"fore":725,"Ġour":726,"ayer":727,"Ġlie":728,"Ġstart":729,"gel":730,"Ġimp":731,"ell":732,"Ġdri":733,"Ġhuman":734,"Ġnothing":735,"Ġfear":736,"Ġslayer":737,"ious":738,"mor":739,"ue":740,"Ġter":741,"Ġtheres":742,"Ġfree":743,"Ġback":744,"ens":745,"Ġlies":746,"Ġke":747,"Ġsome":748,"ations":749,"Ġatt":750,"Ġwhere":751,"Ġthought":752,"Ġmust":753,"Ġmake":754,"Ġfin":755,"Ġborn":756,"ark":757,"Ġangel":758,"Ġgu":759,"Ġshow":760,"Ġchild":761,"Ġsouls":762,"Ġsuicide":763,"ied":764,"ys":765,"hed":766,"Ġdest":767,"ish":768,"ash":769,"Ġstep":770,"strum":771,"instrum":772,"Ġday":773,"âĢĶ":774,"iss":775,"Ġlost":776,"ĠĠĠĠ":777,"Ġconf":778,"instrumental":779,"..":780,"Ġfa":781,"Ġwho":782,"Ġaf":783,"att":784,"Ġpo":785,"Ġyourself":786,"Ġstop":787,"Ġblack":788,"Ġexp":789,"Ġupon":790,"Ġsatan":791,",âĢĿ":792,".âĢĿ":793,"igh":794,"Ġ(":795,"Ġive":796,"Ġow":797,"Ġoff":798,"Ġstand":799,"outro":800,"Ġkne":801,"Ġliving":802,"ts":803,"Ġband":804,"Ġcould":805,"act":806,"rist":807,"Ġqu":808,"Ġtw":809,"Ġfr":810,"erc":811,"Ġpow":812,"Ġreg":813,"Ġres":814,"Ġrun":815,"Ġbreak":816,"Ġrelig":817,"Ġfinal":818,"ci":819,"ile":820,"ory":821,"Ġbefore":822,"Ġlove":823,"Ġgods":824,"Ġkeep":825,"ase":826,"lp":827,"ual":828,"Ġshe":829,"Ġsays":830,"ons":831,"ating":832,"ite":833,"Ġhelp":834,"Ġblind":835,"ction":836,"Ġscreams":837,"ho":838,"the":839,"Ġsay":840,"Ġwont":841,"Ġcall":842,"Ġover":843,"Ġhigh":844,"Ġinc":845,"Ġdef":846,"uct":847,"Ġfuckin":848,"Ġpray":849,"Ġscreaming":850,"Ġvictim":851,"aa":852,"ff":853,"ove":854,"ss":855,"Ġad":856,"ery":857,"Ġhear":858,"ush":859,"outh":860,"Ġbrain":861,"az":862,"ered":863,"ject":864,"ned":865,"Ġdark":866,"Ġmast":867,"ense":868,"Ġrep":869,"aste":870,"uls":871,"Ġabout":872,"Ġskin":873,"Ġbody":874,"Ġheaven":875,"Ġterror":876,"ome":877,"Ġfo":878,"Ġcor":879,"Ġname":880,"itt":881,"Ġgot":882,"app":883,"Ġclose":884,"Ġviolence":885,"Ġpower":886,"iv":887,"Ġtort":888,"Ġfut":889,"Ġcre":890,"ang":891,"Ġtoo":892,"Ġper":893,"Ġdev":894,"irst":895,"Ġcha":896,"Ġkilling":897,"Ġreality":898,"Ġobs":899,"Ġown":900,"Ġtorture":901,"use":902,"ves":903,"Ġsin":904,"Ġsong":905,"Ġwall":906,"Ġwait":907,"Ġyouve":908,"Ġcry":909,"Ġlast":910,"Ġlef":911,"Ġthr":912,"Ġheart":913,"rif":914,"Ġnear":915,"Ġwithout":916,"Ġeverything":917,"Ġbreath":918,"Ġdreams":919,"Ġfuture":920,"Ġleft":921,"Ġve":922,"Ġturn":923,"ond":924,"Ġif":925,"Ġfore":926,"Ġfirst":927,"Ġlong":928,"Ġstill":929,"other":930,"Ġcold":931,"Ġfaith":932,"line":933,"tal":934,"Ġtill":935,"Ġsouth":936,"Ġwr":937,"Ġdying":938,"orm":939,"Ġlust":940,"Ġple":941,"aya":942,"ical":943,"apt":944,"Ġendless":945,"ople":946,"Ġmany":947,"Ġburning":948,"Ġsatans":949,"ression":950,"Ġattack":951,"Ġforever":952,"ich":953,"read":954,"Ġcri":955,"Ġother":956,"Ġgun":957,"Ġgrow":958,"ross":959,"Ġear":960,"Ġred":961,"Ġwithin":962,"Ġsoci":963,"Ġgoing":964,"Ġaraya":965,"Ġlives":966,"Ġpeople":967,"ways":968,"Ġaround":969,"Ġsac":970,"Ġsil":971,"Ġsick":972,"Ġfri":973,"Ġcause":974,"Ġher":975,"Ġbet":976,"Ġforce":977,"aken":978,"Ġthats":979,"Ġwhy":980,"ape":981,"ĠâĢĺ":982,"Ġalways":983,"Ġdisc":984,"Ġdrink":985,"Ġempt":986,"Ġreligion":987,"Ġchaos":988,"ds":989,"min":990,"Ġtear":991,"Ġac":992,"Ġsm":993,"Ġdam":994,"Ġmass":995,"Ġmakes":996,"Ġbu":997,"Ġcann":998,"llow":999,"ene":1000,"itar":1001,"Ġbeen":1002,"ury":1003,"ult":1004,"Ġalive":1005,"Ġbring":1006,"Ġhold":1007,"Ġhung":1008,"Ġwalk":1009,"Ġche":1010,"Ġthings":1011,"als":1012,"Ġlight":1013,"Ġreign":1014,"ession":1015,"Ġouts":1016,"Ġcomm":1017,"Ġcomp":1018,"Ġcoming":1019,"Ġhome":1020,"Ġrot":1021,"Ġawaiting":1022,"Ġafter":1023,"Ġmade":1024,"Ġfind":1025,"Ġpri":1026,"Ġinn":1027,"Ġreally":1028,"Ġsec":1029,"Ġsearch":1030,"aught":1031,"Ġburns":1032,"ize":1033,"Ġdidn":1034,"Ġcannot":1035,"Ġoutside":1036,"ix":1037,"king":1038,"Ġ4":1039,"Ġtaste":1040,"Ġsav":1041,"Ġsaid":1042,"Ġret":1043,"Ġsoon":1044,"Ġshall":1045,"Ġsub":1046,"Ġhimself":1047,"Ġinsanity":1048,"Ġwatching":1049,"Ġgrave":1050,"Ġthoughts":1051,"ein":1052,"gu":1053,"ia":1054,"les":1055,"oice":1056,"pare":1057,"ruct":1058,"sy":1059,"Ġwings":1060,"Ġmr":1061,"Ġmur":1062,"Ġmerc":1063,"Ġcross":1064,"Ġha":1065,"Ġph":1066,"Ġpart":1067,"ary":1068,"Ġgein":1069,"fect":1070,"Ġsold":1071,"Ġslow":1072,"Ġsky":1073,"Ġprepare":1074,"Ġeternity":1075,"Ġmaster":1076,"led":1077,"uth":1078,"Ġent":1079,"Ġsave":1080,"Ġthen":1081,"Ġden":1082,"Ġdom":1083,"Ġmad":1084,"ert":1085,"Ġcast":1086,"Ġpar":1087,"ars":1088,"Ġgates":1089,"Ġbel":1090,"Ġstalk":1091,"ution":1092,"Ġspread":1093,"ures":1094,"Ġchrist":1095,"Ġminds":1096,"Ġunder":1097,"Ġabove":1098,"Ġdestro":1099,"Ġpoint":1100,"Ġcorp":1101,"Ġsacrif":1102,"day":1103,"dom":1104,"na":1105,"ines":1106,"Ġsad":1107,"Ġsup":1108,"Ġyear":1109,"Ġmis":1110,"atter":1111,"Ġfat":1112,"Ġhol":1113,"aring":1114,"Ġkath":1115,"mell":1116,"omb":1117,"âĢħthe":1118,"Ġspe":1119,"Ġspill":1120,"Ġnightm":1121,"Ġsword":1122,"Ġfighting":1123,"Ġbegin":1124,"Ġbegins":1125,"Ġstarts":1126,"Ġfollow":1127,"Ġempty":1128,"Ġmurder":1129,"Ġsoldi":1130,"Ġsacrifice":1131,"de":1132,"whe":1133,"zen":1134,"Ġver":1135,"Ġtou":1136,"Ġap":1137,"Ġthem":1138,"onna":1139,"athe":1140,"atred":1141,"Ġcapt":1142,"anity":1143,"Ġline":1144,"Ġlaw":1145,"Ġlitt":1146,"Ġhor":1147,"Ġhatred":1148,"Ġtom":1149,"Ġpass":1150,"Ġpsy":1151,"Ġgonna":1152,"ason":1153,"Ġreason":1154,"Ġself":1155,"amp":1156,"Ġwell":1157,"Ġfrozen":1158,"imes":1159,"empt":1160,"Ġspir":1161,"Ġimm":1162,"ryn":1163,"Ġvictims":1164,"Ġwalls":1165,"Ġkathryn":1166,"Ġlittle":1167,"Ġpsych":1168,"ble":1169,"ris":1170,"rate":1171,"Ġer":1172,"Ġtry":1173,"Ġsame":1174,"Ġsmell":1175,"reat":1176,"Ġbo":1177,"Ġcar":1178,"Ġcur":1179,"ors":1180,"Ġlord":1181,"Ġtomb":1182,"Ġdep":1183,"Ġgive":1184,"Ġgame":1185,"Ġel":1186,"ality":1187,"Ġbeat":1188,"Ġmemor":1189,"ained":1190,"Ġshad":1191,"Ġrise":1192,"Ġright":1193,"ips":1194,"Ġfeeding":1195,"Ġguitar":1196,"ashing":1197,"Ġknees":1198,"Ġfriend":1199,"ced":1200,"gn":1201,"oot":1202,"ven":1203,"Ġson":1204,"Ġsor":1205,"Ġsense":1206,"Ġbro":1207,"Ġbull":1208,"Ġcou":1209,"Ġinst":1210,"Ġthing":1211,"Ġthose":1212,"Ġrest":1213,"Ġonce":1214,"ucif":1215,"Ġvis":1216,"ott":1217,"otic":1218,"Ġlifeless":1219,"Ġplace":1220,"Ġtruth":1221,"Ġleave":1222,"ized":1223,"Ġsurv":1224,"Ġbecause":1225,"Ġpeace":1226,"Ġplaying":1227,"Ġdesp":1228,"...":1229,"attered":1230,"Ġexpl":1231,"Ġfront":1232,"Ġveins":1233,"Ġpleas":1234,"Ġdiscip":1235,"Ġreturn":1236,"ruction":1237,"Ġsadist":1238,"Ġspirit":1239,"Ġmemories":1240,"!!":1241,"hind":1242,"ial":1243,"ning":1244,"sw":1245,"we":1246,"Ġ/":1247,"Ġtaken":1248,"Ġfac":1249,"Ġcle":1250,"esus":1251,"Ġpi":1252,"Ġansw":1253,"Ġgl":1254,"Ġlif":1255,"let":1256,"Ġbehind":1257,"asp":1258,"Ġjud":1259,"Ġjesus":1260,"Ġrage":1261,"Ġdiv":1262,"Ġshit":1263,"Ġshoot":1264,"Ġwords":1265,"Ġsuff":1266,"Ġalone":1267,"Ġprop":1268,"Ġanything":1269,"able":1270,"pping":1271,"Ġearth":1272,"ah":1273,"bl":1274,"ec":1275,"ked":1276,"ost":1277,"ray":1278,"ront":1279,"tic":1280,"Ġes":1281,"Ġtell":1282,"Ġair":1283,"Ġthese":1284,"ony":1285,"Ġyouth":1286,"Ġfill":1287,"Ġfast":1288,"Ġhard":1289,"Ġpure":1290,"sten":1291,"Ġlisten":1292,"Ġbeing":1293,"Ġread":1294,"Ġseed":1295,"get":1296,"ets":1297,"Ġcons":1298,"Ġkingdom":1299,"Ġlead":1300,"Ġdecay":1301,"Ġdemise":1302,"Ġchildren":1303,"Ġconfront":1304,"Ġknew":1305,"Ġtwist":1306,"Ġdarkness":1307,"Ġsociet":1308,"Ġmadness":1309,"Ġyears":1310,"Ġmisery":1311,".âĢĻ":1312,"aise":1313,"cape":1314,"kind":1315,"lict":1316,"oin":1317,"ty":1318,"til":1319,"ug":1320,"uch":1321,"Ġtakes":1322,"Ġtimes":1323,"hes":1324,"Ġsy":1325,"ret":1326,"Ġmay":1327,"Ġmuch":1328,"Ġfate":1329,"Ġbit":1330,"ering":1331,"Ġcare":1332,"Ġland":1333,"Ġhop":1334,"Ġhates":1335,"Ġhapp":1336,"Ġinv":1337,"vel":1338,"ants":1339,"Ġrap":1340,"Ġrul":1341,"Ġwhich":1342,"irth":1343,"Ġwasn":1344,"Ġsport":1345,"Ġchoice":1346,"Ġmankind":1347,"Ġrip":1348,"Ġtrue":1349,"Ġeven":1350,"Ġarm":1351,"awn":1352,"Ġbleeding":1353,"Ġdestruction":1354,"Ġsongs":1355,"Ġdamned":1356,"Ġburi":1357,"Ġsearching":1358,"Ġhorror":1359,"Ġescape":1360,"of":1361,"xt":1362,"Ġact":1363,"Ġwin":1364,"Ġwake":1365,"Ġmach":1366,"atory":1367,"Ġfull":1368,"Ġbatt":1369,"Ġcame":1370,"Ġopp":1371,"Ġhide":1372,"Ġtotal":1373,"Ġpur":1374,"Ġgen":1375,"vers":1376,"Ġeach":1377,"ale":1378,"ows":1379,"asy":1380,"ents":1381,"Ġnext":1382,"Ġrain":1383,"Ġshould":1384,"Ġunf":1385,"Ġconv":1386,"aves":1387,"ards":1388,"Ġrich":1389,"Ġholy":1390,"oss":1391,"ock":1392,"Ġswe":1393,"Ġlooking":1394,"intro":1395,"Ġagainst":1396,"Ġbecome":1397,"Ġdemons":1398,"Ġbodies":1399,"Ġthrone":1400,"Ġinnoc":1401,"Ġmercy":1402,"Ġdeny":1403,"Ġdestroy":1404,"where":1405,"Ġtouch":1406,"Ġcount":1407,"Ġlifes":1408,"af":1409,"ail":1410,"bal":1411,"cher":1412,"Ġtor":1413,"Ġage":1414,"Ġwit":1415,"Ġwann":1416,"Ġdone":1417,"Ġmom":1418,"Ġmut":1419,"eric":1420,"Ġce":1421,"Ġlate":1422,"Ġhall":1423,"ened":1424,"Ġtoday":1425,"Ġpen":1426,"Ġpay":1427,"Ġposs":1428,"ition":1429,"Ġanother":1430,"Ġthan":1431,"Ġthous":1432,"isf":1433,"Ġforget":1434,"Ġseen":1435,"aking":1436,"Ġjoin":1437,"Ġru":1438,"Ġuntil":1439,"Ġways":1440,"Ġbrings":1441,"Ġdrain":1442,"Ġsatisf":1443,"Ġstrong":1444,"Ġenem":1445,"ude":1446,"Ġviolent":1447,"Ġcalled":1448,"Ġsilence":1449,"Ġholds":1450,"Ġhaun":1451,"Ġcorpse":1452,"Ġnightmare":1453,"Ġsoldiers":1454,"Ġsorrow":1455,"Ġmachine":1456,"Ġthousand":1457,"by":1458,"ck":1459,"come":1460,"ful":1461,"hil":1462,"old":1463,"sh":1464,"Ġtour":1465,"Ġser":1466,"onight":1467,"Ġmon":1468,"Ġfound":1469,"Ġoh":1470,"Ġlot":1471,"Ġlying":1472,"Ġtoge":1473,"Ġground":1474,"rop":1475,"Ġhes":1476,"idd":1477,"Ġstab":1478,"Ġseem":1479,"Ġdeaths":1480,"Ġwhore":1481,"Ġven":1482,"ights":1483,"asting":1484,"âĢħc":1485,"Ġlos":1486,"Ġsound":1487,"olo":1488,"Ġseek":1489,"Ġeye":1490,"Ġhells":1491,"Ġeveryone":1492,"Ġknowing":1493,"Ġintro":1494,"Ġanyone":1495,"Ġembr":1496,"archy":1497,"Ġsurre":1498,"Ġfalls":1499,"Ġinfam":1500,"Ġcrucif":1501,"Ġawaits":1502,"ieve":1503,"Ġhelpless":1504,"aaaa":1505,"apped":1506,"Ġgrowing":1507,"Ġpriest":1508,"Ġsurvive":1509,"Ġdivine":1510,"Ġsociety":1511,"Ġtorment":1512,"Ġwanna":1513,"Ġtogether":1514,"cy":1515,"cer":1516,"man":1517,"sp":1518,"ved":1519,"vid":1520,"âģ":1521,"Ġz":1522,"Ġtri":1523,"Ġtonight":1524,"ination":1525,"Ġside":1526,"ones":1527,"Ġmus":1528,"Ġfact":1529,"ange":1530,"Ġanarchy":1531,"sel":1532,"owed":1533,"Ġrec":1534,"Ġremor":1535,"ode":1536,"Ġste":1537,"Ġstri":1538,"Ġstaring":1539,"Ġmetal":1540,"Ġset":1541,"Ġrace":1542,"Ġrush":1543,"cept":1544,"Ġwhile":1545,"ily":1546,"Ġdistr":1547,"Ġsol":1548,"Ġvir":1549,"Ġbloodline":1550,"Ġlose":1551,"Ġunre":1552,"umb":1553,"oney":1554,"Ġext":1555,"Ġexist":1556,"aving":1557,"Ġagg":1558,"Ġprice":1559,"Ġprom":1560,"aws":1561,"ments":1562,"Ġobject":1563,"Ġhunting":1564,"Ġeternally":1565,"Ġquest":1566,"hold":1567,"hook":1568,"Ġdefy":1569,"Ġwaiting":1570,"Ġsecond":1571,"Ġpsychotic":1572,"Ġanswer":1573,"Ġready":1574,"Ġtwisted":1575,"Ġunfold":1576,"Ġrichard":1577,"Ġmoment":1578,"Ġmonarch":1579,"âģŁ":1580,"Ġmusic":1581,"Ġremorse":1582,"eah":1583,"ken":1584,"ms":1585,"more":1586,"ni":1587,"pen":1588,"pet":1589,"tich":1590,"your":1591,"Ġtest":1592,"Ġtempt":1593,"inate":1594,"Ġsign":1595,"Ġwound":1596,"Ġyeah":1597,"Ġign":1598,"Ġmor":1599,"Ġmine":1600,"Ġmother":1601,"ane":1602,"Ġold":1603,"Ġhang":1604,"Ġpast":1605,"Ġpush":1606,"Ġind":1607,"Ġinfect":1608,"ities":1609,"Ġantich":1610,"Ġthrow":1611,"Ġdeal":1612,"Ġstain":1613,"Ġstone":1614,"acre":1615,"geance":1616,"ames":1617,"Ġwel":1618,"Ġweak":1619,"imp":1620,"Ġass":1621,"Ġimag":1622,"ured":1623,"ulation":1624,"acks":1625,"Ġslips":1626,"Ġexc":1627,"Ġwanted":1628,"Ġcomes":1629,"augh":1630,"Ġagony":1631,"Ġfeeling":1632,"Ġprin":1633,"Ġleg":1634,"Ġlear":1635,"ific":1636,"ified":1637,"Ġused":1638,"rent":1639,"Ġgrasp":1640,"Ġbecom":1641,"Ġinfer":1642,"aze":1643,"Ġturning":1644,"Ġwrath":1645,"Ġbetter":1646,"Ġmassacre":1647,"Ġchest":1648,"Ġcommand":1649,"Ġstalking":1650,"Ġhope":1651,"Ġenemy":1652,"Ġvengeance":1653,"Ġlosing":1654,"Ġantichrist":1655,"air":1656,"be":1657,"gy":1658,"gance":1659,"ior":1660,"ward":1661,"yr":1662,"yond":1663,"Ġuse":1664,"Ġaction":1665,"ouse":1666,"Ġsle":1667,"Ġsix":1668,"rets":1669,"Ġwon":1670,"Ġwent":1671,"Ġdon":1672,"Ġmen":1673,"Ġmed":1674,"Ġbast":1675,"Ġbury":1676,"Ġbirth":1677,"Ġopen":1678,"Ġhar":1679,"Ġplead":1680,"Ġdefe":1681,"Ġgone":1682,"rot":1683,"lect":1684,"Ġbeyond":1685,"Ġrem":1686,"Ġrele":1687,"Ġreach":1688,"Ġkiss":1689,"Ġstare":1690,"Ġstren":1691,"acy":1692,"right":1693,"Ġforg":1694,"Ġforced":1695,"Ġneck":1696,"Ġramp":1697,"iles":1698,"Ġdied":1699,"Ġfew":1700,"Ġbloods":1701,"otion":1702,"âĢħof":1703,"âĢħyour":1704,"Ġspine":1705,"Ġunc":1706,"Ġunle":1707,"Ġscars":1708,"Ġdoes":1709,"Ġeverywhere":1710,"Ġplan":1711,"Ġbreed":1712,"Ġpraise":1713,"Ġvile":1714,"Ġskull":1715,"Ġroom":1716,"Ġbecame":1717,"Ġdemon":1718,"ield":1719,"Ġeternal":1720,"Ġstarted":1721,"Ġhumanity":1722,"Ġresist":1723,"Ġobsession":1724,"Ġfather":1725,"Ġholes":1726,"Ġelse":1727,"Ġbattle":1728,"Ġsatisfy":1729,"Ġembrace":1730,"Ġinfamous":1731,"Ġdistrust":1732,"Ġwelcome":1733,"Ġsleep":1734,"Ġstreng":1735,"ares":1736,"bod":1737,"but":1738,"ces":1739,"da":1740,"ded":1741,"ek":1742,"ew":1743,"for":1744,"gr":1745,"ging":1746,"hy":1747,"lt":1748,"ling":1749,"ped":1750,"pect":1751,"raid":1752,"sl":1753,"Ġ\"":1754,"Ġte":1755,"inct":1756,"hem":1757,"Ġapp":1758,"rem":1759,"reed":1760,"Ġdays":1761,"Ġdawn":1762,"Ġmand":1763,"Ġmoney":1764,"Ġfar":1765,"Ġfun":1766,"Ġfly":1767,"Ġbene":1768,"Ġbomb":1769,"Ġlaugh":1770,"Ġhour":1771,"Ġhouse":1772,"Ġpers":1773,"Ġnone":1774,"Ġnumb":1775,"stant":1776,"vern":1777,"rogance":1778,"Ġeasy":1779,"Ġheat":1780,"Ġlimb":1781,"Ġreb":1782,"memb":1783,"Ġstre":1784,"Ġform":1785,"Ġseren":1786,"aint":1787,"aked":1788,"fection":1789,"Ġshattered":1790,"irc":1791,"Ġspell":1792,"Ġending":1793,"Ġabuse":1794,"Ġsuch":1795,"arent":1796,"Ġbrut":1797,"ortality":1798,"Ġpride":1799,"Ġtrust":1800,"Ġart":1801,"Ġarrogance":1802,"Ġview":1803,"Ġanymore":1804,"Ġimpuls":1805,"Ġdrive":1806,"Ġdripping":1807,"Ġsomething":1808,"Ġsatanic":1809,"Ġdevast":1810,"Ġobsc":1811,"Ġcries":1812,"Ġsaved":1813,"Ġphys":1814,"Ġdomain":1815,"Ġsupp":1816,"Ġvery":1817,"Ġpassion":1818,"Ġbroken":1819,"Ġinstinct":1820,"Ġsadistic":1821,"Ġfaces":1822,"Ġpierc":1823,"Ġconfrontations":1824,"Ġhallowed":1825,"Ġrule":1826,"Ġlearn":1827,"Ġbastard":1828,"Ġrampant":1829,"Ġmandatory":1830,"Ġbeneath":1831,"Ġimpulsive":1832,"ding":1833,"ffe":1834,"fare":1835,"ger":1836,"ife":1837,"ience":1838,"miss":1839,"nam":1840,"pe":1841,"ring":1842,"to":1843,"time":1844,"ually":1845,"Ġtalk":1846,"Ġsent":1847,"Ġsend":1848,"Ġsens":1849,"oned":1850,"Ġid":1851,"Ġmight":1852,"Ġfig":1853,"Ġfury":1854,"Ġbar":1855,"Ġbott":1856,"Ġcat":1857,"Ġcent":1858,"Ġlac":1859,"Ġlaid":1860,"Ġhy":1861,"Ġtold":1862,"Ġput":1863,"Ġpol":1864,"Ġpull":1865,"Ġanni":1866,"Ġthro":1867,"sease":1868,"Ġgreat":1869,"Ġech":1870,"adise":1871,"icid":1872,"Ġbehold":1873,"Ġref":1874,"Ġmean":1875,"Ġsets":1876,"Ġseven":1877,"une":1878,"entless":1879,"Ġjack":1880,"Ġride":1881,"Ġration":1882,"ility":1883,"Ġdisease":1884,"uced":1885,"that":1886,"Ġ19":1887,"Ġwarfare":1888,"Ġslaught":1889,"Ġcontin":1890,"Ġintens":1891,"Ġmanip":1892,"Ġameric":1893,"Ġdisgu":1894,"Ġdrug":1895,"ager":1896,"Ġbutcher":1897,"Ġprof":1898,"ocide":1899,"icked":1900,"Ġprey":1901,"Ġswing":1902,"Ġensl":1903,"izing":1904,"pped":1905,"Ġheavens":1906,"Ġtwo":1907,"Ġruns":1908,"Ġrunning":1909,"Ġrepris":1910,"Ġhunger":1911,"Ġunderst":1912,"Ġverbal":1913,"Ġapart":1914,"Ġbullet":1915,"Ġpleasure":1916,"Ġdiscipline":1917,"Ġjudge":1918,"Ġprophe":1919,"Ġburial":1920,"Ġgenocide":1921,"Ġinnocence":1922,"Ġpenet":1923,"body":1924,"Ġphysical":1925,"Ġsupport":1926,"Ġannihil":1927,"Ġecho":1928,"icidal":1929,"Ġdisguise":1930,"Ġreprisal":1931,")]":1932,"bed":1933,"bid":1934,"jo":1935,"ler":1936,"lines":1937,"mit":1938,"ract":1939,"Ġed":1940,"Ġtil":1941,"head":1942,"Ġsit":1943,"Ġske":1944,"Ġsanity":1945,"Ġsimp":1946,"Ġwish":1947,"Ġmo":1948,"Ġmin":1949,"Ġmess":1950,"atic":1951,"ather":1952,"Ġfi":1953,"Ġfam":1954,"Ġfour":1955,"Ġbi":1956,"Ġbones":1957,"Ġcaught":1958,"anc":1959,"anic":1960,"Ġlit":1961,"ency":1962,"Ġpres":1963,"Ġpiss":1964,"Ġpanic":1965,"ither":1966,"arge":1967,"stem":1968,"Ġdece":1969,"Ġger":1970,"Ġgood":1971,"ades":1972,"icate":1973,"icious":1974,"asing":1975,"Ġrehe":1976,"ushed":1977,"Ġstay":1978,"Ġitself":1979,"ries":1980,"riors":1981,"Ġmet":1982,"Ġmeans":1983,"Ġblame":1984,"unity":1985,"urt":1986,"Ġrit":1987,"Ġdiffe":1988,"anda":1989,"Ġfell":1990,"Ġfelt":1991,"âĢħw":1992,"Ġ20":1993,"ending":1994,"Ġspl":1995,"Ġwarm":1996,"Ġwarriors":1997,"Ġdeadly":1998,"Ġflow":1999,"Ġthroughout":2000,"Ġcond":2001,"Ġexile":2002,"Ġexec":2003,"Ġknown":2004,"Ġknows":2005,"Ġgovern":2006,"Ġworlds":2007,"Ġdisp":2008,"Ġtrans":2009,"iction":2010,"agr":2011,"aganda":2012,"Ġarri":2013,"ptic":2014,"Ġvictor":2015,"Ġdesire":2016,"Ġafraid":2017,"Ġstands":2018,"Ġkeeps":2019,"ulsions":2020,"Ġcreating":2021,"Ġwaits":2022,"rified":2023,"Ġwrong":2024,"Ġsocial":2025,"Ġsilent":2026,"Ġbetray":2027,"mination":2028,"Ġtears":2029,"Ġacc":2030,"Ġslowly":2031,"Ġguitarist":2032,"otten":2033,"Ġspiritual":2034,"Ġpropaganda":2035,"Ġsystem":2036,"Ġrules":2037,"Ġsweet":2038,"Ġseems":2039,"selves":2040,"Ġunrest":2041,"Ġmorbid":2042,"Ġrelease":2043,"Ġstrength":2044,"Ġprofane":2045,"Ġedge":2046,"Ġsimple":2047,"aim":2048,"cip":2049,"cass":2050,"ched":2051,"dest":2052,"jeff":2053,"kn":2054,"no":2055,"ps":2056,"rup":2057,"ses":2058,"tr":2059,"tar":2060,"uel":2061,"Ġing":2062,"Ġtre":2063,"Ġtyr":2064,"ined":2065,"iness":2066,"Ġaint":2067,"Ġsal":2068,"Ġsure":2069,"Ġsif":2070,"ref":2071,"Ġwind":2072,"Ġwild":2073,"Ġwaste":2074,"Ġder":2075,"Ġdance":2076,"Ġdrop":2077,"Ġide":2078,"Ġmiss":2079,"Ġmove":2080,"Ġfant":2081,"Ġfix":2082,"Ġbest":2083,"Ġbound":2084,"erv":2085,"Ġcas":2086,"Ġcirc":2087,"ank":2088,"Ġlines":2089,"Ġhom":2090,"Ġhot":2091,"Ġhab":2092,"Ġhaving":2093,"ench":2094,"Ġtook":2095,"Ġtoler":2096,"Ġpie":2097,"Ġinject":2098,"Ġinfection":2099,"itz":2100,"iting":2101,"aries":2102,"Ġgreed":2103,"aly":2104,"ics":2105,"ices":2106,"ides":2107,"Ġreject":2108,"Ġstorm":2109,"Ġrape":2110,"ils":2111,"Ġdies":2112,"Ġvanity":2113,"Ġshred":2114,"âĢħh":2115,"âĢħl":2116,"âĢħp":2117,"Ġaside":2118,"Ġloose":2119,"emned":2120,"Ġspent":2121,"Ġchange":2122,"Ġmindless":2123,"Ġworth":2124,"Ġworking":2125,"Ġcoll":2126,"Ġscar":2127,"Ġscene":2128,"Ġawaken":2129,"Ġexter":2130,"rying":2131,"Ġplag":2132,"Ġaltar":2133,"Ġamp":2134,"Ġdrill":2135,"Ġdraws":2136,"Ġbreathe":2137,"Ġtrapped":2138,"Ġlets":2139,"Ġwater":2140,"Ġrealize":2141,"Ġsurge":2142,"Ġinflict":2143,"Ġheads":2144,"Ġangels":2145,"Ġincis":2146,"Ġperpet":2147,"Ġtearing":2148,"Ġsmiles":2149,"Ġchem":2150,"Ġparadise":2151,"Ġstalks":2152,"Ġcaptor":2153,"Ġcaptive":2154,"Ġboy":2155,"Ġcarcass":2156,"Ġcurse":2157,"Ġdepth":2158,"Ġbeaten":2159,"Ġshadows":2160,"Ġdespair":2161,"Ġexplode":2162,"Ġclear":2163,"lete":2164,"Ġsuffering":2165,"Ġpossession":2166,"Ġhaunting":2167,"Ġtemptations":2168,"ification":2169,"Ġbecomes":2170,"member":2171,"Ġstreets":2172,"mission":2173,"Ġreflect":2174,"Ġrationale":2175,"Ġenslave":2176,"Ġpenetrate":2177,"Ġannihilation":2178,"Ġskelet":2179,"Ġgerman":2180,"Ġdifferent":2181,"Ġcondemned":2182,"Ġexecution":2183,"Ġtreac":2184,"Ġhabit":2185,"aust":2186,"bing":2187,"co":2188,"cend":2189,"down":2190,"fall":2191,"jud":2192,"ph":2193,"rain":2194,"uous":2195,"vation":2196,"you":2197,"Ġtaking":2198,"ough":2199,"Ġsn":2200,"Ġwide":2201,"Ġdorm":2202,"Ġyet":2203,"Ġmid":2204,"Ġmort":2205,"Ġmag":2206,"Ġmarch":2207,"Ġmult":2208,"Ġmatter":2209,"ature":2210,"atures":2211,"eration":2212,"Ġcrow":2213,"Ġcamp":2214,"lled":2215,"anse":2216,"order":2217,"Ġhig":2218,"ening":2219,"Ġtomor":2220,"Ġparent":2221,"ites":2222,"Ġthree":2223,"seen":2224,"Ġgir":2225,"vering":2226,"roc":2227,"Ġeager":2228,"ising":2229,"Ġmyself":2230,"Ġstage":2231,"Ġones":2232,"Ġmeant":2233,"Ġmeet":2234,"urre":2235,"Ġrac":2236,"Ġdiff":2237,"Ġvoice":2238,"Ġshut":2239,"âĢħm":2240,"ols":2241,"Ġgodless":2242,"Ġatroc":2243,"Ġunb":2244,"Ġunkn":2245,"umm":2246,"Ġslip":2247,"igate":2248,"Ġkilled":2249,"Ġdoom":2250,"Ġflows":2251,"Ġconstant":2252,"Ġeveryday":2253,"Ġsuicidal":2254,"Ġintent":2255,"Ġdiss":2256,"ardo":2257,"Ġripping":2258,"Ġord":2259,"Ġornam":2260,"Ġproble":2261,"Ġroad":2262,"Ġprejud":2263,"Ġdecline":2264,"Ġemotion":2265,"Ġsurg":2266,"Ġfallen":2267,"Ġfeeds":2268,"Ġhands":2269,"Ġimpl":2270,"Ġconfession":2271,"Ġfail":2272,"Ġcouldn":2273,"Ġregret":2274,"Ġresurre":2275,"Ġbreaks":2276,"Ġadd":2277,"Ġthrill":2278,"Ġplease":2279,"Ġcrims":2280,"Ġbetwe":2281,"Ġdamn":2282,"Ġcomplete":2283,"Ġsecrets":2284,"Ġsubmission":2285,"Ġbelow":2286,"Ġcorpses":2287,"ombardo":2288,"Ġspeak":2289,"Ġspilling":2290,"Ġspilled":2291,"Ġsoldier":2292,"Ġimmortality":2293,"Ġtombs":2294,"Ġfriends":2295,"Ġvisions":2296,"Ġdespise":2297,"Ġglass":2298,"Ġsuffer":2299,"Ġruled":2300,"Ġburied":2301,"Ġoppression":2302,"Ġwitness":2303,"Ġmutil":2304,"Ġhaunt":2305,"Ġsounds":2306,"Ġsurreal":2307,"Ġsurrend":2308,"Ġzone":2309,"Ġaggression":2310,"Ġwounds":2311,"Ġdefeat":2312,"Ġremain":2313,"Ġforgotten":2314,"Ġunleash":2315,"Ġdoesnt":2316,"Ġbreeds":2317,"Ġserenade":2318,"Ġbrutal":2319,"Ġobscene":2320,"Ġthroat":2321,"Ġunderstand":2322,"Ġmoon":2323,"Ġpissing":2324,"Ġrehears":2325,"Ġbetrayed":2326,"Ġchemical":2327,"Ġdepths":2328,"Ġhabitat":2329,"Ġtomorrow":2330,"Ġparents":2331,"Ġornaments":2332,"Ġproblem":2333,"Ġprejudice":2334,"Ġcrimson":2335,"Ġbetween":2336,"**":2337,"aign":2338,"bt":2339,"bert":2340,"cing":2341,"cies":2342,"dd":2343,"ever":2344,"fuck":2345,"fort":2346,"form":2347,"ged":2348,"gad":2349,"gress":2350,"hh":2351,"hol":2352,"lay":2353,"lac":2354,"lasting":2355,"oo":2356,"over":2357,"post":2358,"sed":2359,"sions":2360,"tt":2361,"ues":2362,"uary":2363,"ubl":2364,"val":2365,"vail":2366,"wn":2367,"ze":2368,"Ġ9":2369,"Ġult":2370,"inction":2371,"Ġsuck":2372,"Ġwicked":2373,"onic":2374,"Ġdust":2375,"Ġir":2376,"Ġmat":2377,"Ġmal":2378,"Ġmill":2379,"Ġmot":2380,"Ġmart":2381,"Ġmist":2382,"Ġmark":2383,"Ġmaking":2384,"Ġmaint":2385,"Ġfing":2386,"Ġfame":2387,"Ġfren":2388,"Ġfuse":2389,"Ġfuel":2390,"Ġbas":2391,"Ġbath":2392,"Ġbig":2393,"Ġbapt":2394,"Ġbright":2395,"erce":2396,"Ġcell":2397,"Ġciv":2398,"ano":2399,"Ġlun":2400,"Ġlombardo":2401,"Ġhit":2402,"Ġpac":2403,"Ġpent":2404,"Ġpest":2405,"Ġpress":2406,"Ġpubl":2407,"Ġinter":2408,"Ġnation":2409,"itation":2410,"aration":2411,"Ġangu":2412,"Ġthreat":2413,"semb":2414,"Ġgho":2415,"Ġeither":2416,"ales":2417,"Ġlibert":2418,"ident":2419,"ashed":2420,"Ġrevel":2421,"used":2422,"Ġstate":2423,"Ġstim":2424,"Ġmel":2425,"Ġsex":2426,"Ġsell":2427,"Ġseal":2428,"anting":2429,"Ġround":2430,"Ġranc":2431,"alls":2432,"Ġdign":2433,"Ġweb":2434,"Ġweap":2435,"Ġvain":2436,"Ġshare":2437,"Ġshatter":2438,"Ġbloody":2439,"ots":2440,"utation":2441,"âĢħto":2442,"imid":2443,"imate":2444,"Ġask":2445,"Ġloss":2446,"ored":2447,"ters":2448,"Ġseeking":2449,"Ġoutro":2450,"ulate":2451,"ulated":2452,"Ġeverlasting":2453,"urned":2454,"Ġcool":2455,"Ġwhats":2456,"Ġslaves":2457,"Ġkills":2458,"Ġflames":2459,"Ġconqu":2460,"Ġawake":2461,"istic":2462,"Ġable":2463,"Ġplac":2464,"Ġsudd":2465,"Ġintense":2466,"Ġalong":2467,"Ġalco":2468,"Ġrival":2469,"Ġfeels":2470,"Ġevent":2471,"osing":2472,"Ġlevel":2473,"Ġleather":2474,"ift":2475,"Ġlived":2476,"ocaust":2477,"Ġpret":2478,"Ġrealized":2479,"Ġstrain":2480,"Ġstruct":2481,"Ġstrapped":2482,"Ġdecor":2483,"Ġdecis":2484,"Ġdecays":2485,"Ġenough":2486,"Ġensemb":2487,"Ġobl":2488,"Ġinfest":2489,"Ġthough":2490,"Ġvictory":2491,"forever":2492,"Ġdrives":2493,"Ġguess":2494,"Ġchilds":2495,"ishment":2496,"Ġexper":2497,"Ġowe":2498,"Ġstanding":2499,"Ġquick":2500,"Ġquite":2501,"Ġfrag":2502,"Ġregard":2503,"Ġovert":2504,"Ġdarkened":2505,"iving":2506,"anged":2507,"Ġperfect":2508,"Ġdevi":2509,"Ġsince":2510,"Ġguns":2511,"Ġgrows":2512,"Ġearly":2513,"Ġemptiness":2514,"Ġsmall":2515,"guitar":2516,"Ġbelieve":2517,"Ġspreading":2518,"Ġdestroying":2519,"Ġfatal":2520,"Ġholocaust":2521,"Ġspeed":2522,"athetic":2523,"Ġdepression":2524,"Ġshadow":2525,"Ġbrother":2526,"Ġinstigate":2527,"Ġspirits":2528,"!!!":2529,"Ġcleans":2530,"Ġhappy":2531,"Ġraping":2532,"Ġraining":2533,"Ġconviction":2534,"Ġconvulsions":2535,"Ġinnocent":2536,"ception":2537,"Ġextinction":2538,"Ġpromis":2539,"Ġpromise":2540,"Ġunfolds":2541,"Ġsigns":2542,"Ġhanging":2543,"Ġinfectious":2544,"Ġthrown":2545,"Ġprincip":2546,"Ġlegions":2547,"Ġwonder":2548,"Ġmedia":2549,"Ġbloodshed":2550,"Ġflying":2551,"Ġpiercing":2552,"Ġfigures":2553,"Ġbottom":2554,"Ġlacer":2555,"Ġhyp":2556,"Ġslaughter":2557,"Ġritual":2558,"Ġgovernment":2559,"agram":2560,"rupt":2561,"Ġsalvation":2562,"refrain":2563,"Ġderanged":2564,"Ġextermination":2565,"Ġskeletons":2566,"Ġdormant":2567,"Ġcampaign":2568,"Ġhigher":2569,"Ġunknown":2570,"Ġsurgery":2571,"Ġsurrender":2572,"Ġrehearsal":2573,"Ġultimate":2574,"Ġfrenz":2575,"Ġcivil":2576,"Ġpentagram":2577,"Ġanguish":2578,"Ġghost":2579,"Ġrancid":2580,"Ġdignity":2581,"Ġweapon":2582,"Ġconquer":2583,"Ġsudden":2584,"Ġalcohol":2585,"Ġensemble":2586,"??":2587,"bre":2588,"bution":2589,"cl":2590,"cess":2591,"cause":2592,"cious":2593,"ches":2594,"dred":2595,"gs":2596,"gin":2597,"gment":2598,"ground":2599,"gatory":2600,"iet":2601,"iate":2602,"iation":2603,"just":2604,"lots":2605,"mless":2606,"ng":2607,"othing":2608,"rit":2609,"solo":2610,"ta":2611,"uid":2612,"uries":2613,"ving":2614,"vent":2615,"wide":2616,"well":2617,"Ġur":2618,"inite":2619,"oubt":2620,"Ġsaw":2621,"Ġsab":2622,"Ġsights":2623,"reme":2624,"repe":2625,"Ġdad":2626,"Ġdoubt":2627,"Ġmental":2628,"Ġmost":2629,"ater":2630,"Ġbrou":2631,"eral":2632,"Ġcal":2633,"Ġcut":2634,"Ġcity":2635,"Ġlay":2636,"Ġlucif":2637,"Ġlater":2638,"Ġhurt":2639,"eng":2640,"Ġpat":2641,"Ġpit":2642,"Ġpath":2643,"Ġpun":2644,"Ġpot":2645,"Ġpum":2646,"Ġpage":2647,"Ġpuls":2648,"Ġpathetic":2649,"Ġinit":2650,"Ġnaz":2651,"itate":2652,"itude":2653,"Ġanim":2654,"Ġyours":2655,"Ġyourselves":2656,"sec":2657,"Ġdement":2658,"Ġgri":2659,"Ġeat":2660,"ison":2661,"ished":2662,"ading":2663,"Ġheard":2664,"icy":2665,"iced":2666,"Ġbear":2667,"using":2668,"Ġkind":2669,"Ġstar":2670,"rives":2671,"ribution":2672,"Ġseg":2673,"Ġseas":2674,"Ġblade":2675,"urch":2676,"Ġrad":2677,"Ġrand":2678,"Ġraise":2679,"Ġrising":2680,"amm":2681,"Ġwhite":2682,"ilt":2683,"Ġweve":2684,"Ġweek":2685,"Ġvice":2686,"Ġshr":2687,"Ġshack":2688,"Ġfeast":2689,"âĢħa":2690,"âĢħi":2691,"âĢħin":2692,"âĢħit":2693,"Ġloved":2694,"emp":2695,"endable":2696,"roud":2697,"Ġimmor":2698,"anning":2699,"Ġchance":2700,"Ġchurch":2701,"olish":2702,"Ġwarring":2703,"ulf":2704,"Ġscorn":2705,"Ġslashing":2706,"Ġdoct":2707,"Ġdogs":2708,"Ġfluid":2709,"Ġends":2710,"Ġhannemann":2711,"Ġabs":2712,"Ġabolish":2713,"oking":2714,"oked":2715,"opath":2716,"Ġworldwide":2717,"Ġamong":2718,"Ġbrush":2719,"Ġdisint":2720,"icted":2721,"rown":2722,"Ġskys":2723,"Ġcontrols":2724,"ocr":2725,"icken":2726,"Ġprevail":2727,"rence":2728,"ressive":2729,"Ġfaceless":2730,"Ġneedle":2731,"Ġstrug":2732,"Ġstricken":2733,"Ġdecide":2734,"Ġdeclines":2735,"Ġenjo":2736,"Ġgraze":2737,"Ġviolate":2738,"Ġhades":2739,"Ġgetting":2740,"Ġheavy":2741,"Ġhunt":2742,"Ġhundred":2743,"Ġdesec":2744,"Ġimpal":2745,"Ġdrif":2746,"Ġdriving":2747,"Ġsomeone":2748,"Ġshowing":2749,"Ġconflict":2750,"Ġexpendable":2751,"Ġbandm":2752,"action":2753,"Ġtwil":2754,"Ġregress":2755,"Ġregression":2756,"Ġreligions":2757,"Ġreligious":2758,"Ġshell":2759,"Ġpraying":2760,"Ġrepentless":2761,"Ġfoot":2762,"Ġcorro":2763,"ived":2764,"Ġcreation":2765,"Ġcreations":2766,"Ġcryptic":2767,"Ġlonger":2768,"Ġendlessly":2769,"Ġsickening":2770,"Ġdrinking":2771,"Ġcommon":2772,"Ġrotting":2773,"Ġprimit":2774,"Ġsaves":2775,"Ġretribution":2776,"Ġsubject":2777,"Ġhail":2778,"Ġenter":2779,"ertain":2780,"ertips":2781,"Ġbelong":2782,"Ġunderground":2783,"Ġimmense":2784,"Ġboil":2785,"Ġcursed":2786,"Ġelude":2787,"Ġshades":2788,"Ġbullets":2789,"Ġexplain":2790,"Ġdisciples":2791,"Ġpierce":2792,"Ġjudgment":2793,"Ġshooting":2794,"Ġmayhem":2795,"Ġinvol":2796,"Ġraped":2797,"Ġpurgatory":2798,"idden":2799,"ology":2800,"Ġcrucify":2801,"vida":2802,"Ġfactions":2803,"Ġsteel":2804,"Ġstrike":2805,"Ġstripped":2806,"Ġsolo":2807,"Ġvirgin":2808,"Ġexistence":2809,"Ġaggressive":2810,"Ġquestion":2811,"Ġignore":2812,"Ġpushing":2813,"Ġstains":2814,"Ġimagine":2815,"Ġinferno":2816,"Ġharlots":2817,"Ġharmless":2818,"Ġpleading":2819,"Ġsleeping":2820,"Ġfuneral":2821,"Ġperson":2822,"Ġlimbs":2823,"Ġreborn":2824,"Ġrebirth":2825,"Ġinstinctive":2826,"Ġsensations":2827,"Ġcenter":2828,"Ġmeaning":2829,"Ġcontinue":2830,"Ġintensity":2831,"Ġamericon":2832,"Ġfires":2833,"Ġfamily":2834,"Ġdeceit":2835,"Ġarrive":2836,"Ġvictorys":2837,"Ġfantas":2838,"Ġcasual":2839,"Ġhomicide":2840,"Ġtolerance":2841,"Ġpiece":2842,"Ġinjecting":2843,"Ġcollect":2844,"Ġamputation":2845,"Ġorders":2846,"Ġimplode":2847,"gadda":2848,"Ġmatch":2849,"Ġmaintain":2850,"Ġfingertips":2851,"Ġpressure":2852,"Ġplacid":2853,"Ġstructure":2854,"Ġfragments":2855,"repeat":2856,"Ġbrought":2857,"Ġlucifer":2858,"Ġpits":2859,"Ġpageants":2860,"Ġnazi":2861,"Ġrandom":2862,"Ġdisinte":2863,"Ġstrugg":2864,"Ġprimitive":2865,",âĢĻ":2866,".]":2867,"?âĢĻ":2868,"aver":2869,"afe":2870,"aul":2871,"ber":2872,"bar":2873,"bath":2874,"backs":2875,"dds":2876,"duced":2877,"gid":2878,"gas":2879,"god":2880,"gulf":2881,"human":2882,"hile":2883,"iac":2884,"ief":2885,"ired":2886,"li":2887,"licate":2888,"night":2889,"obal":2890,"ping":2891,"pro":2892,"rid":2893,"ration":2894,"rance":2895,"times":2896,"way":2897,"ware":2898,"witz":2899,"Ġ5":2900,"Ġrow":2901,"Ġtro":2902,"Ġtight":2903,"Ġtreat":2904,"Ġtemp":2905,"ining":2906,"herou":2907,"Ġach":2908,"Ġaus":2909,"Ġary":2910,"Ġsing":2911,"Ġsan":2912,"Ġsie":2913,"Ġsafe":2914,"Ġwast":2915,"Ġwrot":2916,"Ġdread":2917,"Ġdaught":2918,"Ġyes":2919,"Ġmar":2920,"Ġment":2921,"Ġmil":2922,"Ġmir":2923,"Ġmice":2924,"Ġmorn":2925,"atonic":2926,"Ġfas":2927,"Ġfans":2928,"Ġben":2929,"Ġbus":2930,"Ġbone":2931,"Ġbab":2932,"Ġcun":2933,"Ġcure":2934,"Ġcour":2935,"Ġcatt":2936,"Ġcult":2937,"Ġodds":2938,"essel":2939,"Ġlone":2940,"Ġhon":2941,"Ġhal":2942,"Ġtoy":2943,"Ġtoll":2944,"Ġpul":2945,"Ġpick":2946,"Ġpushed":2947,"Ġintern":2948,"Ġnon":2949,"Ġ[(":2950,"array":2951,"Ġanest":2952,"Ġantic":2953,"Ġdebr":2954,"Ġgames":2955,"Ġec":2956,"Ġeight":2957,"Ġequ":2958,"chwitz":2959,"ism":2960,"aline":2961,"Ġliked":2962,"icial":2963,"lebr":2964,"iding":2965,"idual":2966,"Ġbeer":2967,"Ġbeware":2968,"asion":2969,"Ġrev":2970,"Ġremember":2971,"usion":2972,"Ġkep":2973,"acinate":2974,"Ġnobl":2975,"Ġforth":2976,"Ġsea":2977,"Ġsees":2978,"Ġseve":2979,"Ġsevering":2980,"Ġsewn":2981,"Ġbliss":2982,"Ġblasp":2983,"Ġblock":2984,"unk":2985,"under":2986,"Ġrick":2987,"Ġraid":2988,"Ġraz":2989,"ceived":2990,"ontro":2991,"Ġwhate":2992,"oming":2993,"Ġvo":2994,"Ġvicious":2995,"Ġvessel":2996,"Ġshame":2997,"Ġshort":2998,"Ġshitt":2999,"Ġshining":3000,"uty":3001,"âĢħf":3002,"âĢħs":3003,"âĢħlead":3004,"âĢħthat":3005,"ender":3006,"Ġspi":3007,"Ġspit":3008,"Ġspace":3009,"Ġspray":3010,"anny":3011,"Ġchos":3012,"Ġchanting":3013,"Ġknife":3014,"Ġwarn":3015,"Ġuns":3016,"Ġunw":3017,"Ġunde":3018,"aph":3019,"ums":3020,"ineering":3021,"Ġhello":3022,"Ġjustified":3023,"efit":3024,"Ġslit":3025,"Ġslave":3026,"Ġsliced":3027,"Ġslaver":3028,"lessly":3029,"ĠâĢ¢":3030,"ĠâĢĿ":3031,"Ġcancer":3032,"Ġdoor":3033,"Ġcontain":3034,"Ġcontam":3035,"Ġexhil":3036,"istry":3037,"Ġaband":3038,"Ġabacinate":3039,"ops":3040,"Ġplight":3041,"ortion":3042,"Ġdisse":3043,"Ġdisorder":3044,"Ġdisarray":3045,"ipation":3046,"Ġhole":3047,"Ġhollow":3048,"aged":3049,"Ġdownfall":3050,"ify":3051,"ifies":3052,"Ġprov":3053,"Ġprogress":3054,"awl":3055,"Ġroy":3056,"Ġroam":3057,"Ġpreach":3058,"quitt":3059,"Ġclim":3060,"struck":3061,"renaline":3062,"ressed":3063,"Ġhasnt":3064,"ected":3065,"Ġlooked":3066,"Ġenc":3067,"Ġenfor":3068,"Ġengulf":3069,"Ġbegun":3070,"Ġbegging":3071,"Ġsurround":3072,"Ġthinking":3073,"Ġrelentless":3074,"Ġinfract":3075,"Ġinfinite":3076,"Ġcrashing":3077,"Ġcracks":3078,"Ġcrawl":3079,"Ġdescend":3080,"Ġdidnt":3081,"Ġdrips":3082,"Ġtermin":3083,"Ġterrified":3084,"Ġfreeze":3085,"ension":3086,"Ġkeys":3087,"Ġsometimes":3088,"Ġattempt":3089,"Ġshowers":3090,"Ġconfess":3091,"Ġpool":3092,"Ġblackened":3093,"Ġquench":3094,"Ġpowers":3095,"Ġregrets":3096,"Ġrespect":3097,"onscious":3098,"Ġblinded":3099,"Ġblindly":3100,"they":3101,"Ġoverd":3102,"Ġincom":3103,"Ġincest":3104,"Ġdeface":3105,"uction":3106,"Ġadrenaline":3107,"Ġmasters":3108,"Ġcorrupt":3109,"Ġobserv":3110,"Ġtortured":3111,"Ġsinful":3112,"Ġhearts":3113,"Ġbreathing":3114,"Ġturns":3115,"Ġsacred":3116,"Ġsickle":3117,"Ġfrigid":3118,"Ġacross":3119,"Ġaccept":3120,"Ġacquitt":3121,"Ġsmoo":3122,"Ġwalking":3123,"Ġreigns":3124,"Ġcompuls":3125,"Ġmercury":3126,"Ġphil":3127,"Ġentrance":3128,"Ġdominate":3129,"Ġdomineering":3130,"Ġsuper":3131,"Ġmisfort":3132,"Ġspew":3133,"Ġnightmares":3134,"death":3135,"Ġera":3136,"Ġtrying":3137,"Ġbook":3138,"Ġcurrent":3139,"Ġlords":3140,"venge":3141,"Ġsenseless":3142,"Ġbullsh":3143,"Ġpleasures":3144,"Ġdisciple":3145,"Ġglobal":3146,"Ġdivide":3147,"Ġseeds":3148,"Ġconsum":3149,"hesia":3150,"Ġsym":3151,"Ġpurity":3152,"Ġcountry":3153,"Ġmutants":3154,"Ġcelebr":3155,"Ġhalls":3156,"Ġjoining":3157,"Ġrub":3158,"Ġstronger":3159,"Ġthousands":3160,"Ġserp":3161,"Ġserve":3162,"Ġstabbing":3163,"âĢħcon":3164,"Ġcrucifix":3165,"aaaaaaaa":3166,"Ġpriests":3167,"Ġtried":3168,"Ġsteal":3169,"Ġvirt":3170,"Ġtemptation":3171,"Ġmothers":3172,"Ġmotherfuck":3173,"Ġdealt":3174,"Ġimages":3175,"Ġprince":3176,"Ġbecoming":3177,"Ġinferior":3178,"Ġdefeated":3179,"Ġunleashed":3180,"ielding":3181,"Ġfathers":3182,"hemy":3183,"Ġlaughing":3184,"Ġviews":3185,"Ġdevastation":3186,"Ġpierced":3187,"Ġidi":3188,"Ġbarbar":3189,"Ġcatatonic":3190,"Ġcenturies":3191,"Ġpolit":3192,"Ġjackals":3193,"Ġ199":3194,"Ġmanipulated":3195,"Ġprophecies":3196,"Ġechoing":3197,"Ġpresent":3198,"Ġ201":3199,"destruct":3200,"Ġingest":3201,"Ġtyranny":3202,"Ġshredding":3203,"Ġscarstruck":3204,"Ġplague":3205,"Ġsurgeon":3206,"Ġinfliction":3207,"Ġperpetual":3208,"Ġreflections":3209,"Ġtreacherou":3210,"Ġmagic":3211,"Ġcrowded":3212,"Ġgirl":3213,"Ġracing":3214,"Ġunbound":3215,"Ġresurrection":3216,"Ġdamnation":3217,"Ġmutilated":3218,"Ġmalicious":3219,"Ġmillions":3220,"Ġbaptized":3221,"Ġcells":3222,"Ġlunatic":3223,"Ġrevelation":3224,"Ġstimulation":3225,"Ġintensely":3226,"Ġpretty":3227,"Ġexperience":3228,"Ġprinciple":3229,"Ġlacerated":3230,"break":3231,"Ġurge":3232,"Ġpumped":3233,"Ġpulsing":3234,"Ġdemented":3235,"Ġshackled":3236,"Ġimmoral":3237,"Ġbandmates":3238,"Ġtwilights":3239,"Ġcorroding":3240,"Ġbelongs":3241,"Ġfantasies":3242,"Ġdisintegr":3243,"Ġstruggling":3244,"produced":3245,"Ġtroops":3246,"Ġachieve":3247,"Ġauschwitz":3248,"Ġaryan":3249,"Ġsiege":3250,"Ġwrote":3251,"Ġmentally":3252,"Ġbenefit":3253,"Ġbaby":3254,"Ġcourse":3255,"Ġcattle":3256,"Ġlonely":3257,"Ġhalf":3258,"Ġanesthesia":3259,"Ġanticipation":3260,"Ġdebris":3261,"Ġeighties":3262,"Ġkept":3263,"Ġnoblest":3264,"Ġblasphemy":3265,"Ġwhatever":3266,"Ġvessels":3267,"Ġshitty":3268,"Ġchosen":3269,"Ġundead":3270,"Ġslavery":3271,"Ġinfractions":3272,"Ġacquittance":3273,"Ġsmooth":3274,"Ġmisfortune":3275,"Ġbullshit":3276,"Ġbarbaric":3277,"Ġtreacherous":3278,"ax":3279,"auty":3280,"bm":3281,"bushed":3282,"cc":3283,"cuous":3284,"conscious":3285,"equ":3286,"eating":3287,"flict":3288,"gies":3289,"gos":3290,"gger":3291,"hr":3292,"hs":3293,"hal":3294,"hip":3295,"io":3296,"ian":3297,"ient":3298,"iance":3299,"ible":3300,"ks":3301,"kes":3302,"kay":3303,"loc":3304,"lude":3305,"mr":3306,"mon":3307,"mes":3308,"mic":3309,"oint":3310,"pit":3311,"par":3312,"pose":3313,"phy":3314,"run":3315,"rated":3316,"rition":3317,"so":3318,"ton":3319,"tained":3320,"uated":3321,"uff":3322,"vals":3323,"was":3324,"xic":3325,"yn":3326,"Ġx":3327,"Ġtong":3328,"Ġtorn":3329,"Ġtasting":3330,"Ġtaint":3331,"inating":3332,"here":3333,"Ġain":3334,"Ġaaa":3335,"Ġavid":3336,"Ġsed":3337,"Ġsight":3338,"Ġsons":3339,"reg":3340,"Ġwis":3341,"Ġwave":3342,"Ġwire":3343,"Ġwade":3344,"Ġwife":3345,"Ġdar":3346,"Ġya":3347,"Ġii":3348,"Ġmain":3349,"Ġmont":3350,"Ġmann":3351,"Ġmaid":3352,"Ġmines":3353,"Ġyoud":3354,"Ġyoung":3355,"ative":3356,"Ġfist":3357,"Ġber":3358,"Ġbur":3359,"Ġbated":3360,"inger":3361,"erve":3362,"eril":3363,"erate":3364,"erves":3365,"Ġca":3366,"Ġcares":3367,"Ġcertain":3368,"oring":3369,"orance":3370,"Ġocc":3371,"Ġokay":3372,"Ġlinger":3373,"Ġhist":3374,"Ġhiding":3375,"Ġtow":3376,"Ġpet":3377,"Ġpop":3378,"Ġpred":3379,"Ġpear":3380,"Ġpound":3381,"Ġproud":3382,"Ġinher":3383,"Ġinert":3384,"Ġnest":3385,"Ġnaked":3386,"Ġnature":3387,"Ġanx":3388,"Ġthres":3389,"Ġdeg":3390,"Ġdeity":3391,"Ġdeter":3392,"Ġdeception":3393,"Ġdelicate":3394,"Ġgift":3395,"Ġegos":3396,"ching":3397,"iscer":3398,"Ġheathe":3399,"Ġliqu":3400,"Ġlips":3401,"ication":3402,"ically":3403,"icult":3404,"ower":3405,"leanse":3406,"idity":3407,"Ġbeauty":3408,"asite":3409,"Ġreap":3410,"uspect":3411,"ussions":3412,"Ġstom":3413,"Ġstuck":3414,"Ġstup":3415,"Ġstakes":3416,"Ġstory":3417,"Ġstained":3418,"Ġstuff":3419,"Ġsteril":3420,"ril":3421,"ribut":3422,"Ġmemb":3423,"Ġfort":3424,"Ġforward":3425,"Ġforces":3426,"Ġblud":3427,"Ġblaz":3428,"Ġblank":3429,"Ġblitz":3430,"ung":3431,"ains":3432,"fearing":3433,"fett":3434,"Ġrid":3435,"Ġraked":3436,"inds":3437,"aming":3438,"amed":3439,"ilence":3440,"ilty":3441,"ideo":3442,"eth":3443,"Ġdist":3444,"Ġdimin":3445,"Ġdistant":3446,"thod":3447,"Ġsole":3448,"Ġval":3449,"Ġvac":3450,"Ġvideo":3451,"anding":3452,"Ġshot":3453,"Ġshock":3454,"ute":3455,"âĢħall":3456,"âĢħaw":3457,"âĢħint":3458,"âĢħfor":3459,"Ġ10":3460,"Ġasked":3461,"Ġashes":3462,"Ġasphy":3463,"lying":3464,"Ġsour":3465,"Ġspree":3466,"ctuary":3467,"Ġchill":3468,"Ġcharge":3469,"oles":3470,"olves":3471,"Ġknights":3472,"Ġseeing":3473,"Ġoutlines":3474,"Ġwork":3475,"esty":3476,"Ġunit":3477,"Ġunfore":3478,"umph":3479,"ulating":3480,"Ġcoils":3481,"Ġcoales":3482,"hery":3483,"Ġscor":3484,"Ġscattered":3485,"Ġflo":3486,"Ġflash":3487,"Ġflaws":3488,"Ġcontempt":3489,"Ġcontribut":3490,"Ġconc":3491,"Ġconcer":3492,"Ġconfett":3493,"Ġeverybody":3494,"isten":3495,"Ġendure":3496,"Ġwants":3497,"oken":3498,"ophy":3499,"Ġplays":3500,"ared":3501,"Ġintell":3502,"Ġintimid":3503,"Ġmaniac":3504,"Ġalm":3505,"Ġalter":3506,"Ġambushed":3507,"Ġbride":3508,"Ġdismember":3509,"Ġdrag":3510,"Ġdraw":3511,"Ġdrained":3512,"Ġdrawn":3513,"Ġdrunk":3514,"Ġrivers":3515,"iper":3516,"Ġburned":3517,"Ġhost":3518,"Ġtrick":3519,"aging":3520,"Ġeviscer":3521,"osophy":3522,"Ġcontrolled":3523,"Ġlethal":3524,"pts":3525,"Ġskies":3526,"ocaly":3527,"Ġros":3528,"Ġroot":3529,"Ġpreced":3530,"Ġclos":3531,"Ġclash":3532,"Ġclaim":3533,"Ġclothing":3534,"Ġrealm":3535,"Ġstruck":3536,"Ġstrang":3537,"Ġstraf":3538,"Ġswine":3539,"Ġswatter":3540,"Ġener":3541,"Ġgrand":3542,"Ġgraves":3543,"Ġemb":3544,"Ġembed":3545,"Ġwouldn":3546,"Ġbegat":3547,"Ġsurp":3548,"Ġobtained":3549,"Ġrelations":3550,"Ġrelieve":3551,"Ġfalling":3552,"Ġdemanding":3553,"Ġcrush":3554,"Ġcraz":3555,"Ġheretic":3556,"Ġourselves":3557,"Ġimper":3558,"Ġimpure":3559,"Ġimpale":3560,"Ġfears":3561,"Ġkey":3562,"Ġsomewhere":3563,"Ġattract":3564,"Ġattrition":3565,"Ġfinally":3566,"Ġguy":3567,"Ġguilty":3568,"âĢĶâĢ":3569,"Ġconform":3570,"Ġfair":3571,"Ġafflict":3572,"Ġpoison":3573,"Ġexpected":3574,"Ġoffsp":3575,"Ġregime":3576,"Ġresidual":3577,"Ġbreaking":3578,"Ġshelf":3579,"Ġsheers":3580,"Ġblinding":3581,"Ġcalls":3582,"Ġoverth":3583,"Ġadore":3584,"Ġadorn":3585,"Ġadjust":3586,"Ġfools":3587,"itten":3588,"Ġgotta":3589,"iven":3590,"ival":3591,"Ġcrest":3592,"Ġcreatures":3593,"Ġpervers":3594,"Ġdevotion":3595,"Ġdevils":3596,"Ġobsess":3597,"Ġwaited":3598,"Ġcrypts":3599,"Ġthrash":3600,"Ġthrashing":3601,"Ġvegas":3602,"Ġveloc":3603,"Ġturned":3604,"Ġlongtime":3605,"Ġfaithless":3606,"Ġplea":3607,"Ġattacking":3608,"Ġcrime":3609,"Ġcrimes":3610,"Ġgunsh":3611,"Ġredef":3612,"Ġsickness":3613,"Ġfright":3614,"Ġacid":3615,"Ġsmash":3616,"Ġsmile":3617,"Ġmassive":3618,"Ġhungry":3619,"Ġcheap":3620,"Ġcommence":3621,"Ġcommunity":3622,"Ġinner":3623,"Ġinnate":3624,"Ġsavage":3625,"Ġphot":3626,"Ġphone":3627,"Ġenthr":3628,"Ġparano":3629,"Ġparasite":3630,"Ġbelief":3631,"Ġsuprem":3632,"Ġsupreme":3633,"Ġbeginning":3634,"when":3635,"Ġapolo":3636,"Ġapocaly":3637,"Ġlaws":3638,"rising":3639,"Ġerotic":3640,"Ġerasing":3641,"Ġcarrying":3642,"Ġvision":3643,"Ġvisual":3644,"Ġsurvival":3645,"Ġdesperation":3646,"Ġreturning":3647,"Ġfacil":3648,"Ġcleanse":3649,"Ġfills":3650,"Ġpurest":3651,"Ġconfronting":3652,"Ġsocietys":3653,"Ġsymb":3654,"Ġbits":3655,"Ġbitch":3656,"Ġbitter":3657,"Ġhappen":3658,"Ġhappened":3659,"Ġrapes":3660,"Ġevening":3661,"Ġacts":3662,"Ġbattles":3663,"Ġpurpose":3664,"Ġgener":3665,"Ġsweat":3666,"Ġsweep":3667,"chery":3668,"Ġcerem":3669,"Ġpossess":3670,"iddle":3671,"âĢħcleanse":3672,"Ġintrod":3673,"Ġcrucified":3674,"Ġtrigger":3675,"Ġtriumph":3676,"Ġsolution":3677,"Ġvirus":3678,"petence":3679,"Ġwounded":3680,"Ġignite":3681,"Ġignorance":3682,"Ġmoral":3683,"Ġassass":3684,"Ġbirthright":3685,"Ġtech":3686,"Ġapparent":3687,"Ġlaughs":3688,"Ġpersu":3689,"Ġlaced":3690,"Ġpolicy":3691,"Ġpulling":3692,"Ġ198":3693,"Ġmanipulation":3694,"Ġministry":3695,"Ġfiery":3696,"Ġbible":3697,"Ġlitter":3698,"Ġpresident":3699,"Ġsplatter":3700,"Ġwarmth":3701,"Ġflowing":3702,"Ġflowers":3703,"Ġdispers":3704,"Ġvictorious":3705,"Ġsystematic":3706,"Ġingrate":3707,"Ġsifting":3708,"Ġboundaries":3709,"Ġcircle":3710,"âĢħhand":3711,"âĢħlost":3712,"âĢħpower":3713,"Ġincisions":3714,"Ġperpetuated":3715,"Ġtreachery":3716,"Ġsniper":3717,"Ġmidnight":3718,"Ġmortal":3719,"Ġdifficult":3720,"âĢħmy":3721,"Ġatrocity":3722,"Ġaddicted":3723,"Ġiron":3724,"Ġbathing":3725,"Ġbrightens":3726,"Ġpacification":3727,"Ġpestilence":3728,"Ġpublic":3729,"Ġintervals":3730,"Ġliberties":3731,"Ġmelts":3732,"Ġshattering":3733,"Ġrivalry":3734,"Ġeventually":3735,"Ġdecorated":3736,"Ġdecision":3737,"Ġbrothers":3738,"Ġcleansation":3739,"Ġpromiscuous":3740,"Ġfrenzied":3741,"Ġghosts":3742,"Ġsabbath":3743,"engers":3744,"Ġpunishment":3745,"Ġpotent":3746,"Ġanimation":3747,"Ġradical":3748,"Ġshrine":3749,"Ġdoctor":3750,"Ġdesecrated":3751,"Ġsubjective":3752,"Ġinvolve":3753,"Ġcasualty":3754,"Ġsingle":3755,"Ġdaughters":3756,"Ġfasc":3757,"Ġcunting":3758,"Ġrazors":3759,"Ġspikes":3760,"Ġwarnings":3761,"Ġunsuspect":3762,"Ġunwind":3763,"Ġexhilaration":3764,"Ġabandon":3765,"Ġdissection":3766,"Ġenforcing":3767,"Ġincompetence":3768,"Ġincestuous":3769,"Ġobservance":3770,"Ġcompulsory":3771,"Ġphilosophy":3772,"Ġspewing":3773,"Ġcountrys":3774,"Ġrubin":3775,"Ġserpent":3776,"Ġvirtue":3777,"breakdown":3778,"bmi":3779,"equin":3780,"Ġtongue":3781,"Ġtainted":3782,"Ġaaah":3783,"Ġavidity":3784,"Ġwisdom":3785,"Ġmonths":3786,"Ġmannequin":3787,"Ġburst":3788,"Ġhistory":3789,"Ġpetrified":3790,"Ġpredat":3791,"Ġinherit":3792,"Ġnestled":3793,"Ġdeterior":3794,"Ġheathen":3795,"Ġliquid":3796,"Ġstomach":3797,"Ġmembers":3798,"Ġbludge":3799,"Ġblazes":3800,"Ġblanket":3801,"Ġdiminish":3802,"âĢħinto":3803,"Ġasphyx":3804,"Ġunforeseen":3805,"Ġcoalesce":3806,"Ġconfetti":3807,"Ġdismemberment":3808,"Ġdrags":3809,"Ġeviscerated":3810,"Ġstrafing":3811,"Ġembedded":3812,"Ġrelationship":3813,"Ġcrushing":3814,"Ġoffspring":3815,"Ġresiduals":3816,"Ġadjusting":3817,"Ġvelocity":3818,"Ġgunshot":3819,"Ġenthroned":3820,"Ġbeliefs":3821,"Ġsupremacy":3822,"Ġapologies":3823,"Ġunsuspecting":3824,":]":3825,"?!":3826,"],":3827,"aun":3828,"aight":3829,"ball":3830,"band":3831,"bly":3832,"bec":3833,"bidden":3834,"call":3835,"crying":3836,"days":3837,"dys":3838,"ee":3839,"eg":3840,"een":3841,"eal":3842,"eous":3843,"ease":3844,"fast":3845,"fest":3846,"fire":3847,"go":3848,"hon":3849,"hor":3850,"hine":3851,"hab":3852,"iar":3853,"ianity":3854,"iocr":3855,"kin":3856,"kill":3857,"kri":3858,"kol":3859,"lin":3860,"light":3861,"lum":3862,"lord":3863,"laze":3864,"mst":3865,"mun":3866,"mother":3867,"nal":3868,"nesty":3869,"oved":3870,"ple":3871,"part":3872,"rades":3873,"sue":3874,"sery":3875,"south":3876,"ten":3877,"ted":3878,"ub":3879,"ume":3880,"urop":3881,"ube":3882,"vol":3883,"vious":3884,"wr":3885,"wards":3886,"yes":3887,"ylum":3888,"zed":3889,"Ġ??":3890,"Ġtv":3891,"Ġten":3892,"Ġtar":3893,"Ġtree":3894,"Ġtied":3895,"Ġtact":3896,"Ġtable":3897,"Ġtarge":3898,"Ġtimid":3899,"Ġtired":3900,"Ġtension":3901,"Ġtube":3902,"iny":3903,"inis":3904,"inated":3905,"inning":3906,"hey":3907,"Ġax":3908,"Ġale":3909,"Ġaud":3910,"Ġaaaaa":3911,"Ġsce":3912,"Ġsand":3913,"Ġsown":3914,"Ġsip":3915,"Ġsins":3916,"reen":3917,"rest":3918,"reate":3919,"Ġwiz":3920,"Ġwrist":3921,"Ġwaves":3922,"Ġwasting":3923,"Ġwielding":3924,"Ġdy":3925,"Ġdro":3926,"Ġdod":3927,"Ġdick":3928,"Ġdull":3929,"Ġdwell":3930,"Ġdrown":3931,"Ġic":3932,"Ġice":3933,"Ġmer":3934,"Ġmes":3935,"Ġmas":3936,"Ġmod":3937,"Ġmour":3938,"Ġmouth":3939,"Ġmale":3940,"Ġmumm":3941,"atification":3942,"Ġfal":3943,"Ġfres":3944,"Ġfurn":3945,"Ġfart":3946,"Ġfals":3947,"Ġfading":3948,"Ġban":3949,"Ġbed":3950,"Ġbad":3951,"Ġbri":3952,"Ġball":3953,"Ġbidd":3954,"erm":3955,"ero":3956,"erry":3957,"Ġcro":3958,"Ġcathe":3959,"Ġcards":3960,"Ġcities":3961,"angel":3962,"anked":3963,"anuary":3964,"ories":3965,"Ġlou":3966,"Ġlad":3967,"Ġlur":3968,"Ġless":3969,"Ġlyr":3970,"Ġhans":3971,"Ġhated":3972,"Ġhoney":3973,"Ġhides":3974,"Ġhidden":3975,"enger":3976,"Ġtoward":3977,"Ġpill":3978,"Ġpess":3979,"Ġpend":3980,"Ġpark":3981,"Ġpile":3982,"Ġpacks":3983,"Ġpicked":3984,"Ġpaul":3985,"Ġinsec":3986,"Ġinhuman":3987,"Ġnurt":3988,"ital":3989,"itions":3990,"itize":3991,"arant":3992,"arage":3993,"arish":3994,"aracy":3995,"arrives":3996,"ster":3997,"stare":3998,"stage":3999,"stasy":4000,"Ġanoint":4001,"Ġthy":4002,"Ġthrives":4003,"Ġthunder":4004,"Ġdelay":4005,"Ġgro":4006,"Ġgle":4007,"Ġgas":4008,"Ġgave":4009,"Ġgap":4010,"Ġgary":4011,"Ġgiving":4012,"Ġgarage":4013,"versy":4014,"rokol":4015,"Ġeas":4016,"Ġelect":4017,"Ġeurop":4018,"charge":4019,"ised":4020,"aded":4021,"adicate":4022,"Ġhey":4023,"Ġheld":4024,"Ġheres":4025,"Ġlic":4026,"Ġliar":4027,"icing":4028,"icul":4029,"ider":4030,"ided":4031,"idst":4032,"idents":4033,"Ġmysery":4034,"Ġbell":4035,"Ġbeast":4036,"Ġbeach":4037,"ased":4038,"Ġreac":4039,"Ġreward":4040,"Ġreek":4041,"Ġrevenge":4042,"Ġrehab":4043,"oding":4044,"odus":4045,"Ġkick":4046,"Ġstake":4047,"Ġstud":4048,"Ġstret":4049,"Ġstench":4050,"Ġonto":4051,"Ġonstage":4052,"acher":4053,"illed":4054,"Ġisnt":4055,"Ġissue":4056,"rise":4057,"riend":4058,"rible":4059,"Ġforbidden":4060,"Ġseep":4061,"Ġblown":4062,"Ġblamed":4063,"ursions":4064,"Ġneither":4065,"anted":4066,"antic":4067,"antation":4068,"antly":4069,"fearacy":4070,"Ġjanuary":4071,"Ġrust":4072,"Ġridd":4073,"Ġrange":4074,"Ġrather":4075,"Ġrides":4076,"Ġraging":4077,"Ġrhine":4078,"induced":4079,"amer":4080,"Ġwhip":4081,"iless":4082,"iltr":4083,"iliar":4084,"omy":4085,"omination":4086,"thrit":4087,"Ġwear":4088,"Ġweep":4089,"Ġweigh":4090,"Ġweary":4091,"Ġsoaked":4092,"ategy":4093,"Ġvast":4094,"Ġvices":4095,"anded":4096,"Ġshap":4097,"Ġshaves":4098,"Ġshield":4099,"Ġfeatures":4100,"Ġbloodfest":4101,"utes":4102,"utch":4103,"aster":4104,"âĢħe":4105,"âĢħt":4106,"âĢħby":4107,"âĢħsp":4108,"âĢħdown":4109,"âĢħarrives":4110,"âĢħstare":4111,"imination":4112,"Ġashe":4113,"Ġasylum":4114,"endency":4115,"Ġwash":4116,"Ġwasnt":4117,"Ġspas":4118,"Ġspect":4119,"Ġspear":4120,"Ġspanning":4121,"Ġsperm":4122,"Ġimage":4123,"Ġimbec":4124,"Ġchar":4125,"Ġchap":4126,"Ġchang":4127,"Ġchants":4128,"Ġchasing":4129,"Ġchoking":4130,"olf":4131,"olation":4132,"olution":4133,"olute":4134,"Ġknock":4135,"Ġwars":4136,"Ġwarped":4137,"Ġworst":4138,"Ġworked":4139,"Ġunending":4140,"Ġunseen":4141,"Ġungod":4142,"Ġunli":4143,"ument":4144,"ulum":4145,"ulistic":4146,"Ġcos":4147,"Ġcost":4148,"Ġcover":4149,"Ġcovering":4150,"Ġscav":4151,"Ġscored":4152,"Ġjustice":4153,"Ġslide":4154,"Ġcanv":4155,"Ġdoing":4156,"Ġflies":4157,"Ġflanked":4158,"Ġcontent":4159,"eland":4160,"Ġconceived":4161,"Ġexodus":4162,"Ġnowhere":4163,"ister":4164,"Ġpainless":4165,"Ġgold":4166,"Ġgoals":4167,"Ġabound":4168,"Ġability":4169,"Ġabusing":4170,"Ġabortion":4171,"Ġablaze":4172,"Ġabomination":4173,"Ġwanting":4174,"oks":4175,"okay":4176,"opulate":4177,"lfriend":4178,"ours":4179,"Ġmanif":4180,"Ġmanager":4181,"Ġalso":4182,"Ġnotice":4183,"Ġamnesty":4184,"Ġamidst":4185,"Ġbrink":4186,"Ġbranded":4187,"orts":4188,"ortal":4189,"ortunity":4190,"Ġdism":4191,"Ġdisapp":4192,"Ġdisgr":4193,"Ġdischarge":4194,"Ġcomrades":4195,"arded":4196,"Ġwhenever":4197,"Ġripped":4198,"Ġbrett":4199,"Ġhooks":4200,"Ġtrait":4201,"Ġtrail":4202,"ages":4203,"osed":4204,"Ġcontroversy":4205,"Ġarthrit":4206,"Ġleaving":4207,"Ġorder":4208,"Ġtheyll":4209,"Ġletting":4210,"Ġwatches":4211,"iforn":4212,"Ġprot":4213,"Ġproven":4214,"Ġprovid":4215,"assion":4216,"assist":4217,"ocation":4218,"ocris":4219,"awing":4220,"Ġpreacher":4221,"quet":4222,"Ġclou":4223,"Ġclosing":4224,"Ġclutch":4225,"Ġclawing":4226,"strained":4227,"Ġneeded":4228,"Ġrealizing":4229,"Ġstraight":4230,"Ġstrategy":4231,"Ġswift":4232,"Ġlooks":4233,"Ġenvel":4234,"Ġgraph":4235,"Ġgratification":4236,"Ġemer":4237,"ably":4238,"Ġwouldnt":4239,"Ġbleeds":4240,"Ġhows":4241,"Ġhowever":4242,"Ġrelate":4243,"Ġtherell":4244,"Ġinfilt":4245,"Ġinfiltr":4246,"Ġevils":4247,"Ġplayed":4248,"Ġdesign":4249,"Ġdesens":4250,"Ġnews":4251,"Ġstarting":4252,"Ġimpose":4253,"Ġimpris":4254,"Ġattitude":4255,"Ġfinish":4256,"Ġguys":4257,"Ġguards":4258,"Ġguarant":4259,"Ġshows":4260,"Ġdestiny":4261,"Ġconfine":4262,"Ġwhole":4263,"Ġpoor":4264,"Ġpools":4265,"Ġstops":4266,"Ġstopped":4267,"Ġexpress":4268,"Ġsatanas":4269,"Ġkneel":4270,"Ġquiet":4271,"Ġqueen":4272,"Ġfrust":4273,"Ġfragr":4274,"Ġfrantic":4275,"ercussions":4276,"Ġregen":4277,"Ġregions":4278,"Ġresult":4279,"Ġreserves":4280,"cience":4281,"Ġblinds":4282,"then":4283,"Ġhighway":4284,"Ġincre":4285,"Ġincons":4286,"Ġincantation":4287,"Ġdefying":4288,"Ġdefiance":4289,"Ġprayers":4290,"Ġvictimized":4291,"Ġadmin":4292,"Ġadulating":4293,"Ġmastrokol":4294,"Ġrepl":4295,"Ġrepuls":4296,"Ġrepeating":4297,"Ġrepercussions":4298,"ulsion":4299,"ivious":4300,"Ġperish":4301,"Ġperishment":4302,"Ġpersec":4303,"Ġdevil":4304,"Ġchair":4305,"Ġobserve":4306,"Ġcrying":4307,"Ġveter":4308,"Ġwrite":4309,"Ġwriting":4310,"Ġattacks":4311,"Ġcrimin":4312,"Ġgrown":4313,"Ġsociopath":4314,"Ġdiscret":4315,"Ġdamage":4316,"Ġbuild":4317,"Ġcompulsions":4318,"Ġcomplac":4319,"Ġcompassion":4320,"Ġprim":4321,"Ġinnards":4322,"Ġsecret":4323,"Ġsavior":4324,"Ġsubvers":4325,"iah":4326,"Ġentire":4327,"Ġentering":4328,"Ġdenied":4329,"Ġdomination":4330,"Ġparaly":4331,"arsh":4332,"Ġspreads":4333,"Ġchristianity":4334,"Ġpoints":4335,"Ġpointed":4336,"Ġfatality":4337,"Ġholt":4338,"ombies":4339,"Ġnightmarish":4340,"Ġtough":4341,"Ġtouched":4342,"Ġapril":4343,"Ġcaptures":4344,"Ġlawless":4345,"Ġhorrible":4346,"Ġpassing":4347,"Ġpassed":4348,"Ġimmune":4349,"Ġimmortal":4350,"Ġpsycho":4351,"Ġpsychopath":4352,"Ġpsychology":4353,"Ġerase":4354,"Ġeradicate":4355,"Ġdepopulate":4356,"Ġelimination":4357,"Ġbeats":4358,"Ġbroke":4359,"Ġcouple":4360,"Ġvisiting":4361,"Ġpeaceful":4362,"Ġexploring":4363,"Ġexploding":4364,"Ġpleasing":4365,"Ġpleasant":4366,"Ġpiano":4367,"Ġanswered":4368,"Ġglare":4369,"Ġlift":4370,"Ġsuffocation":4371,"blood":4372,"blical":4373,"Ġtelling":4374,"Ġconsfearacy":4375,"Ġconscience":4376,"Ġleading":4377,"Ġconfrontation":4378,"Ġtwisting":4379,"Ġmaybe":4380,"Ġhappens":4381,"Ġactions":4382,"Ġoppressed":4383,"Ġopportunity":4384,"Ġdestroyed":4385,"ailed":4386,"Ġwitching":4387,"Ġwitchery":4388,"Ġceil":4389,"Ġcease":4390,"Ġpenance":4391,"Ġsatisfaction":4392,"Ġenemies":4393,"bye":4394,"Ġtourni":4395,"Ġserv":4396,"Ġhesitate":4397,"Ġseemed":4398,"âĢħcan":4399,"âĢħcoming":4400,"Ġseeks":4401,"Ġembrac":4402,"Ġinfamy":4403,"Ġhelplessly":4404,"spoken":4405,"Ġzero":4406,"Ġzombies":4407,"Ġrecover":4408,"Ġsteals":4409,"Ġrushing":4410,"Ġsolitude":4411,"Ġunreal":4412,"Ġextrem":4413,"Ġexisting":4414,"Ġtesting":4415,"Ġindul":4416,"Ġinduced":4417,"Ġindication":4418,"Ġinfecting":4419,"Ġexcess":4420,"Ġexcites":4421,"Ġexcitation":4422,"Ġexcursions":4423,"ificial":4424,"Ġinfernal":4425,"airs":4426,"Ġmediocr":4427,"Ġreaching":4428,"Ġforged":4429,"âĢħyourself":4430,"Ġuncontro":4431,"Ġdemonstr":4432,"Ġresistance":4433,"Ġstrengthen":4434,"Ġtex":4435,"Ġteeth":4436,"Ġappar":4437,"Ġappease":4438,"Ġbombard":4439,"Ġnumbers":4440,"Ġstreet":4441,"Ġserenity":4442,"ircle":4443,"Ġspells":4444,"Ġbrutality":4445,"Ġartificial":4446,"Ġdevastating":4447,"Ġobscen":4448,"Ġtalking":4449,"Ġsenses":4450,"Ġfigure":4451,"Ġputrid":4452,"Ġgreater":4453,"Ġjacket":4454,"Ġslaughtered":4455,"Ġintensify":4456,"Ġunderstood":4457,"Ġjudgement":4458,"Ġprophetic":4459,"joie":4460,"Ġminutes":4461,"Ġmessenger":4462,"Ġfamiliar":4463,"Ġbiblical":4464,"Ġritually":4465,"âĢħwith":4466,"Ġ200":4467,"Ġsplattered":4468,"Ġdisplay":4469,"Ġtransf":4470,"Ġtransform":4471,"Ġarrived":4472,"destruction":4473,"Ġtyrant":4474,"Ġsifts":4475,"Ġwindow":4476,"Ġidea":4477,"Ġideas":4478,"Ġideology":4479,"Ġfantasy":4480,"Ġcircum":4481,"Ġhomicidal":4482,"Ġpieces":4483,"Ġshreds":4484,"Ġscarred":4485,"Ġplagues":4486,"Ġinflicting":4487,"Ġincised":4488,"Ġreflecting":4489,"Ġenslavement":4490,"Ġgermany":4491,"phony":4492,"Ġsnap":4493,"Ġmulti":4494,"Ġmultip":4495,"Ġgirlfriend":4496,"Ġdiffused":4497,"Ġatrocities":4498,"Ġconstantly":4499,"Ġdissidents":4500,"Ġfailure":4501,"Ġresurrect":4502,"Ġthrilling":4503,"Ġdamnations":4504,"Ġremains":4505,"Ġchemicals":4506,"Ġ92":4507,"Ġmotive":4508,"Ġmartial":4509,"Ġmartinis":4510,"Ġpacifies":4511,"Ġpesticide":4512,"Ġliberty":4513,"Ġmelting":4514,"Ġsexual":4515,"Ġsells":4516,"Ġsealed":4517,"Ġdecisions":4518,"Ġoblit":4519,"Ġoblivious":4520,"Ġoverturned":4521,"Ġdeviant":4522,"Ġhypn":4523,"Ġhypocris":4524,"Ġfrenzy":4525,"Ġdaddys":4526,"Ġcaliforn":4527,"Ġinitiation":4528,"Ġgrip":4529,"Ġsegments":4530,"Ġweeks":4531,"Ġabsolute":4532,"Ġenjoy":4533,"Ġenjoying":4534,"Ġimpaling":4535,"Ġdrift":4536,"Ġdrifting":4537,"Ġpersonal":4538,"Ġrandomly":4539,"Ġtighten":4540,"Ġtempor":4541,"Ġsanctuary":4542,"Ġwasteland":4543,"Ġmarry":4544,"Ġmilit":4545,"Ġmirror":4546,"Ġmorning":4547,"Ġhonest":4548,"Ġpulse":4549,"Ġecstasy":4550,"Ġequal":4551,"Ġrevulsion":4552,"Ġsevere":4553,"Ġvoices":4554,"Ġspitting":4555,"Ġcontaminating":4556,"Ġprovoking":4557,"Ġclimb":4558,"Ġencircle":4559,"Ġengulfs":4560,"Ġterminate":4561,"Ġoverdose":4562,"Ġcurrently":4563,"Ġsymphony":4564,"Ġcelebration":4565,"âĢħconform":4566,"Ġpolitics":4567,"Ġ1994":4568,"Ġ2011":4569,"regation":4570,"Ġdarling":4571,"Ġmaids":4572,"Ġberlin":4573,"Ġoccur":4574,"Ġtowers":4575,"Ġpounding":4576,"Ġthreshold":4577,"Ġdegree":4578,"Ġreaper":4579,"Ġstupid":4580,"Ġsterilize":4581,"Ġfortune":4582,"Ġblitzkri":4583,"Ġsources":4584,"Ġscorched":4585,"Ġflashbacks":4586,"Ġconcent":4587,"Ġconcern":4588,"Ġhostility":4589,"Ġtrickles":4590,"Ġrosaries":4591,"Ġprecedence":4592,"Ġstrangulation":4593,"Ġenergy":4594,"Ġgrandmother":4595,"Ġembers":4596,"Ġimperfection":4597,"Ġattraction":4598,"âĢĶâĢľ":4599,"Ġaffliction":4600,"Ġoverthrown":4601,"Ġperversions":4602,"Ġredefine":4603,"Ġapocalyptic":4604,"Ġvisualize":4605,"Ġfacilities":4606,"Ġsymbol":4607,"Ġgenerals":4608,"Ġpersuasion":4609,"Ġdispersed":4610,"Ġpotential":4611,"Ġfascination":4612,"Ġpredators":4613,"Ġliquidate":4614,"Ġbludgeon":4615,"called":4616,"Ġ???":4617,"Ġtarget":4618,"Ġtactics":4619,"Ġsiphon":4620,"Ġwizards":4621,"Ġdodwell":4622,"Ġmerge":4623,"Ġmesm":4624,"Ġmodulistic":4625,"Ġmourn":4626,"Ġmalevol":4627,"Ġmummified":4628,"Ġfalse":4629,"Ġfresh":4630,"Ġfurnace":4631,"Ġfarther":4632,"Ġfalsified":4633,"Ġbanished":4634,"Ġbidding":4635,"Ġcrooked":4636,"Ġcatheter":4637,"Ġhansen":4638,"Ġpessim":4639,"Ġpendulum":4640,"Ġnurtured":4641,"Ġgroove":4642,"Ġeasily":4643,"Ġeurope":4644,"Ġreached":4645,"Ġriddled":4646,"Ġshaped":4647,"Ġspearhead":4648,"Ġimbecility":4649,"Ġchapel":4650,"Ġunlike":4651,"Ġscavengers":4652,"Ġmanifest":4653,"Ġdisgrace":4654,"Ġenvelop":4655,"Ġgraphic":4656,"Ġinfiltrate":4657,"Ġinfiltration":4658,"Ġdesensitize":4659,"Ġguarantee":4660,"Ġfragrance":4661,"Ġmastrokolas":4662,"Ġpersecution":4663,"Ġcriminally":4664,"Ġdiscretion":4665,"Ġsubversive":4666,"Ġpsychopathy":4667,"Ġtourniquet":4668,"Ġmediocrity":4669,"Ġhypocrisy":4670,"Ġcalifornia":4671,"Ġblitzkrieg":4672,"?)":4673,"ault":4674,"aising":4675,"bo":4676,"bate":4677,"bation":4678,"bum":4679,"back":4680,"bang":4681,"bbed":4682,"bassist":4683,"bably":4684,"cal":4685,"cow":4686,"cle":4687,"cri":4688,"core":4689,"cery":4690,"cumb":4691,"contro":4692,"coming":4693,"create":4694,"cument":4695,"do":4696,"dr":4697,"dis":4698,"ead":4699,"eve":4700,"erest":4701,"ft":4702,"face":4703,"ffect":4704,"field":4705,"fined":4706,"filled":4707,"ges":4708,"gence":4709,"gary":4710,"gotten":4711,"gains":4712,"hou":4713,"hood":4714,"ier":4715,"iest":4716,"iour":4717,"iable":4718,"ibly":4719,"join":4720,"jured":4721,"kl":4722,"kath":4723,"ket":4724,"lattered":4725,"laugh":4726,"lified":4727,"life":4728,"lature":4729,"listen":4730,"mind":4731,"ner":4732,"nel":4733,"nect":4734,"nical":4735,"og":4736,"ox":4737,"ohe":4738,"oll":4739,"och":4740,"oose":4741,"off":4742,"per":4743,"pir":4744,"paration":4745,"pters":4746,"ral":4747,"ric":4748,"rays":4749,"rage":4750,"rative":4751,"sen":4752,"sion":4753,"ties":4754,"tary":4755,"uz":4756,"uing":4757,"ued":4758,"uce":4759,"uation":4760,"uly":4761,"uaries":4762,"uished":4763,"vin":4764,"vil":4765,"vance":4766,"vied":4767,"wor":4768,"wel":4769,"who":4770,"writ":4771,"yre":4772,"yle":4773,"ycle":4774,"Ġverse":4775,"ĠâĢĻ":4776,"Ġug":4777,"Ġtas":4778,"Ġtur":4779,"Ġtide":4780,"Ġtip":4781,"Ġtick":4782,"Ġtang":4783,"Ġtanning":4784,"Ġtender":4785,"infe":4786,"inet":4787,"inter":4788,"hee":4789,"hell":4790,"hend":4791,"Ġaim":4792,"Ġahead":4793,"Ġavenge":4794,"Ġarise":4795,"ouging":4796,"Ġsun":4797,"Ġsout":4798,"Ġsuc":4799,"Ġsum":4800,"Ġsqu":4801,"Ġshed":4802,"Ġsumm":4803,"rel":4804,"rew":4805,"reve":4806,"rect":4807,"rebr":4808,"revel":4809,"recy":4810,"repit":4811,"Ġwed":4812,"Ġwom":4813,"Ġwins":4814,"Ġwolf":4815,"onent":4816,"onial":4817,"onizing":4818,"onomy":4819,"onfined":4820,"Ġdate":4821,"Ġdave":4822,"Ġdry":4823,"Ġdice":4824,"Ġdag":4825,"Ġdue":4826,"Ġdang":4827,"Ġdanc":4828,"Ġmak":4829,"Ġmos":4830,"Ġmud":4831,"Ġmatt":4832,"Ġmuse":4833,"Ġmia":4834,"Ġmock":4835,"Ġmaze":4836,"Ġmiles":4837,"Ġmortality":4838,"Ġmaim":4839,"Ġmaul":4840,"Ġmiddle":4841,"Ġmarsh":4842,"ats":4843,"atose":4844,"athed":4845,"atiable":4846,"Ġfre":4847,"Ġfed":4848,"Ġfil":4849,"Ġfood":4850,"Ġfake":4851,"Ġfol":4852,"Ġfine":4853,"Ġfive":4854,"Ġfav":4855,"Ġfade":4856,"Ġfield":4857,"Ġfreed":4858,"Ġfiddle":4859,"Ġfaded":4860,"Ġbans":4861,"Ġbase":4862,"Ġbite":4863,"Ġbatter":4864,"Ġballs":4865,"Ġbathed":4866,"inge":4867,"inging":4868,"Ġcore":4869,"Ġcum":4870,"Ġcul":4871,"Ġcard":4872,"Ġcyn":4873,"Ġcamer":4874,"Ġcycle":4875,"lls":4876,"lling":4877,"anite":4878,"anking":4879,"ances":4880,"orite":4881,"Ġoce":4882,"Ġoil":4883,"esqu":4884,"Ġlom":4885,"Ġluck":4886,"Ġlace":4887,"Ġlame":4888,"Ġlashing":4889,"Ġlyn":4890,"Ġlaun":4891,"Ġhus":4892,"Ġhum":4893,"Ġhav":4894,"Ġhaze":4895,"Ġhinds":4896,"ena":4897,"enary":4898,"encing":4899,"Ġtoes":4900,"Ġtown":4901,"Ġtoxic":4902,"Ġtodays":4903,"Ġpin":4904,"Ġped":4905,"Ġpity":4906,"Ġpose":4907,"Ġperc":4908,"Ġpaste":4909,"Ġpairs":4910,"Ġpyre":4911,"Ġinse":4912,"Ġinjured":4913,"Ġnuc":4914,"Ġnice":4915,"Ġnause":4916,"Ġnorm":4917,"Ġnaming":4918,"Ġnailed":4919,"Ġninet":4920,"edience":4921,"ediate":4922,"itud":4923,"arse":4924,"arly":4925,"arious":4926,"arily":4927,"arters":4928,"stain":4929,"Ġthor":4930,"Ġthir":4931,"Ġthrew":4932,"see":4933,"Ġdear":4934,"Ġdeals":4935,"Ġdeaf":4936,"Ġdehuman":4937,"Ġgrou":4938,"Ġgig":4939,"Ġgif":4940,"Ġgasp":4941,"Ġgrot":4942,"Ġgiven":4943,"Ġgouging":4944,"rom":4945,"roach":4946,"roken":4947,"Ġele":4948,"Ġeup":4949,"Ġepit":4950,"Ġeffect":4951,"âĢ¦":4952,"chan":4953,"churned":4954,"isible":4955,"islature":4956,"adul":4957,"alist":4958,"alys":4959,"aying":4960,"Ġheal":4961,"Ġheals":4962,"veil":4963,"vered":4964,"ica":4965,"ici":4966,"icit":4967,"icated":4968,"owing":4969,"lear":4970,"idly":4971,"idental":4972,"Ġbeating":4973,"Ġrein":4974,"Ġreaction":4975,"Ġrelying":4976,"Ġrestrained":4977,"usations":4978,"Ġkerry":4979,"Ġstink":4980,"Ġstick":4981,"Ġstress":4982,"Ġstories":4983,"Ġstyle":4984,"acle":4985,"acting":4986,"Ġnose":4987,"Ġnoct":4988,"Ġnoose":4989,"Ġnoise":4990,"athy":4991,"Ġisolation":4992,"Ġmere":4993,"Ġmethod":4994,"Ġmechan":4995,"Ġsever":4996,"Ġseizing":4997,"Ġseinfe":4998,"Ġblow":4999}