{"<|endoftext|>":0,"!":1,"\"":2,"#":3,"$":4,"%":5,"&":6,"'":7,"(":8,")":9,"*":10,"+":11,",":12,"-":13,".":14,"/":15,"0":16,"1":17,"2":18,"3":19,"4":20,"5":21,"6":22,"7":23,"8":24,"9":25,":":26,";":27,"<":28,"=":29,">":30,"?":31,"@":32,"A":33,"B":34,"C":35,"D":36,"E":37,"F":38,"G":39,"H":40,"I":41,"J":42,"K":43,"L":44,"M":45,"N":46,"O":47,"P":48,"Q":49,"R":50,"S":51,"T":52,"U":53,"V":54,"W":55,"X":56,"Y":57,"Z":58,"[":59,"\\":60,"]":61,"^":62,"_":63,"`":64,"a":65,"b":66,"c":67,"d":68,"e":69,"f":70,"g":71,"h":72,"i":73,"j":74,"k":75,"l":76,"m":77,"n":78,"o":79,"p":80,"q":81,"r":82,"s":83,"t":84,"u":85,"v":86,"w":87,"x":88,"y":89,"z":90,"{":91,"|":92,"}":93,"~":94,"¡":95,"¢":96,"£":97,"¤":98,"¥":99,"¦":100,"§":101,"¨":102,"©":103,"ª":104,"«":105,"¬":106,"®":107,"¯":108,"°":109,"±":110,"²":111,"³":112,"´":113,"µ":114,"¶":115,"·":116,"¸":117,"¹":118,"º":119,"»":120,"¼":121,"½":122,"¾":123,"¿":124,"À":125,"Á":126,"Â":127,"Ã":128,"Ä":129,"Å":130,"Æ":131,"Ç":132,"È":133,"É":134,"Ê":135,"Ë":136,"Ì":137,"Í":138,"Î":139,"Ï":140,"Ð":141,"Ñ":142,"Ò":143,"Ó":144,"Ô":145,"Õ":146,"Ö":147,"×":148,"Ø":149,"Ù":150,"Ú":151,"Û":152,"Ü":153,"Ý":154,"Þ":155,"ß":156,"à":157,"á":158,"â":159,"ã":160,"ä":161,"å":162,"æ":163,"ç":164,"è":165,"é":166,"ê":167,"ë":168,"ì":169,"í":170,"î":171,"ï":172,"ð":173,"ñ":174,"ò":175,"ó":176,"ô":177,"õ":178,"ö":179,"÷":180,"ø":181,"ù":182,"ú":183,"û":184,"ü":185,"ý":186,"þ":187,"ÿ":188,"Ā":189,"ā":190,"Ă":191,"ă":192,"Ą":193,"ą":194,"Ć":195,"ć":196,"Ĉ":197,"ĉ":198,"Ċ":199,"ċ":200,"Č":201,"č":202,"Ď":203,"ď":204,"Đ":205,"đ":206,"Ē":207,"ē":208,"Ĕ":209,"ĕ":210,"Ė":211,"ė":212,"Ę":213,"ę":214,"Ě":215,"ě":216,"Ĝ":217,"ĝ":218,"Ğ":219,"ğ":220,"Ġ":221,"ġ":222,"Ģ":223,"ģ":224,"Ĥ":225,"ĥ":226,"Ħ":227,"ħ":228,"Ĩ":229,"ĩ":230,"Ī":231,"ī":232,"Ĭ":233,"ĭ":234,"Į":235,"į":236,"İ":237,"ı":238,"Ĳ":239,"ĳ":240,"Ĵ":241,"ĵ":242,"Ķ":243,"ķ":244,"ĸ":245,"Ĺ":246,"ĺ":247,"Ļ":248,"ļ":249,"Ľ":250,"ľ":251,"Ŀ":252,"ŀ":253,"Ł":254,"ł":255,"Ń":256,"th":257,"in":258,"ou":259,"Ġth":260,"Ġs":261,"re":262,"Ġa":263,"you":264,"on":265,"Ġthe":266,"Ġyou":267,"ing":268,"Ġm":269,"Ġf":270,"Ġw":271,"Ġd":272,"ll":273,"Ġt":274,"es":275,"an":276,"er":277,"at":278,"Ġb":279,"Ġo":280,"is":281,"ea":282,"en":283,"Ġc":284,"Ġh":285,"Ġof":286,"or":287,"Ġl":288,"it":289,"ed":290,"Ġto":291,"Ġin":292,"Ġn":293,"Ġyour":294,"Ġp":295,"st":296,"ro":297,"ve":298,"ion":299,"ic":300,"Ġg":301,"ar":302,"ill":303,"ow":304,"al":305,"gh":306,"od":307,"im":308,"Ġe":309,"Ġan":310,"Ġmy":311,"Ġli":312,"ra":313,"se":314,"id":315,"ce":316,"the":317,"Ġdea":318,"ver":319,"Ġis":320,"ee":321,"Ġre":322,"lo":323,"Ġbe":324,"ch":325,"ay":326,"Ġi":327,"om":328,"ur":329,"Ġon":330,"un":331,"il":332,"am":333,"ck":334,"ght":335,"Ġno":336,"as":337,"Ġst":338,"Ġand":339,"Ġk":340,"Ġme":341,"Ġfor":342,"ant":343,"le":344,"Ġit":345,"fe":346,"and":347,"ith":348,"ind":349,"all":350,"ld":351,"ak":352,"ear":353,"ess":354,"Ġall":355,"ain":356,"ont":357,"Ġdeath":358,"ide":359,"âĢ":360,"ent":361,"et":362,"ri":363,"Ġwh":364,"ell":365,"lood":366,"Ġne":367,"ust":368,"ate":369,"ation":370,"ad":371,"ct":372,"âĢħ":373,"ie":374,"ight":375,"Ġsou":376,"ity":377,"Ġde":378,"ir":379,"Ġfu":380,"Ġblood":381,"ast":382,"rom":383,"Ġwith":384,"Ġlife":385,"Ġsh":386,"ge":387,"Ġthat":388,"Ġwill":389,"ere":390,"ly":391,"out":392,"ot":393,"ru":394,"li":395,"ore":396,"rou":397,"ist":398,"end":399,"ure":400,"Ġsoul":401,"Ġv":402,"Ġch":403,"ake":404,"to":405,"Ġins":406,"est":407,"sh":408,"Ġfrom":409,"Ġey":410,"Ġsee":411,"Ġmind":412,"urn":413,"Ġfuck":414,"one":415,"now":416,"la":417,"ine":418,"Ġthis":419,"ream":420,"Ġeyes":421,"less":422,"Ġwor":423,"ol":424,"ime":425,"res":426,"Ġdie":427,"your":428,"em":429,"Ġu":430,"Ġwar":431,"Ġdead":432,"no":433,"Ġcom":434,"Ġcan":435,"Ġout":436,"ter":437,"Ġlo":438,"Ġgod":439,"Ġfa":440,"Ġhell":441,"ive":442,"ut":443,"Ġj":444,"Ġway":445,"rough":446,"Ġnever":447,"Ġsp":448,"Ġtime":449,"wh":450,"ul":451,"ead":452,"Ġthrough":453,"Ġare":454,"very":455,"pt":456,"Ġas":457,"Ġim":458,"nd":459,"Ġr":460,"eep":461,"old":462,"Ġha":463,"ies":464,"Ġun":465,"its":466,"Ġpain":467,"thing":468,"eath":469,"Ġkill":470,"lf":471,"ers":472,"Ġsc":473,"Ġat":474,"Ġknow":475,"les":476,"um":477,"Ġworld":478,"op":479,"Ġend":480,"Ġcont":481,"Ġso":482,"ame":483,"Ġwhat":484,"Ġse":485,"ise":486,"ence":487,"ort":488,"ice":489,"eel":490,"ci":491,"Ġra":492,"Ġwant":493,"are":494,"Ġaw":495,"Ġam":496,"Ġsu":497,"ke":498,"pp":499,"Ġfucking":500,"death":501,"sp":502,"ous":503,"self":504,"sion":505,"Ġby":506,"ction":507,"Ġnow":508,"ict":509,"own":510,"Ġnot":511,"Ġits":512,"Ġgo":513,"Ġdis":514,"ves":515,"Ġone":516,"my":517,"ry":518,"ven":519,"row":520,"ack":521,"Ġsa":522,"Ġevery":523,"ome":524,"Ġag":525,"Ġcant":526,"Ġjust":527,"el":528,"ig":529,"Ġman":530,"ance":531,"rol":532,"Ġinside":533,"ire":534,"Ġtake":535,"Ġinsan":536,"atch":537,"Ġnight":538,"Ġdo":539,"Ġcon":540,"Ġup":541,"ca":542,"ok":543,"Ġsk":544,"ings":545,"atan":546,"vil":547,"Ġhate":548,"ard":549,"reams":550,"lesh":551,"Ġcontrol":552,"be":553,"Ġtheir":554,"Ġdown":555,"rain":556,"Ġpl":557,"Ġhave":558,"ins":559,"our":560,"orn":561,"of":562,"pl":563,"con":564,"Ġex":565,"ong":566,"Ġfeel":567,"ne":568,"ther":569,"Ġsw":570,"Ġflesh":571,"Ġbl":572,"ble":573,"ts":574,"ving":575,"os":576,"Ġab":577,"ray":578,"aw":579,"ment":580,"ink":581,"Ġbre":582,"Ġburn":583,"ass":584,"Ġhas":585,"ick":586,"der":587,"for":588,"ness":589,"qu":590,"Ġwe":591,"Ġlike":592,"Ġneed":593,"Ġagain":594,"Ġinsane":595,"ac":596,"ait":597,"if":598,"with":599,"ree":600,"alk":601,"ign":602,"iol":603,"ror":604,"su":605,"Ġhear":606,"ality":607,"bs":608,"att":609,"Ġhis":610,"icide":611,"ild":612,"Ġface":613,"iz":614,"ting":615,"red":616,"Ġmore":617,"ied":618,"ath":619,"use":620,"Ġyoure":621,"Ġdont":622,"ated":623,"uman":624,"us":625,"ord":626,"ach":627,"ep":628,"Ġro":629,"akes":630,"round":631,"Ġcome":632,"Ġaway":633,"ect":634,"ag":635,"ud":636,"Ġfire":637,"ates":638,"ish":639,"Ġhead":640,"Ġlie":641,"ade":642,"Ġdec":643,"ex":644,"fore":645,"low":646,"ying":647,"Ġen":648,"Ġfe":649,"Ġor":650,"Ġonly":651,"alls":652,"Ġhea":653,"Ġlet":654,"Ġinto":655,"Ġany":656,"Ġlive":657,"Ġvict":658,"mon":659,"ren":660,"ally":661,"gel":662,"god":663,"ody":664,"Ġus":665,"ound":666,"Ġgra":667,"Ġbeg":668,"..":669,"gion":670,"ps":671,"ull":672,"Ġru":673,"Ġthou":674,"Ġsur":675,"youre":676,"Ġthey":677,"Ġfear":678,"Ġpre":679,"Ġpro":680,"Ġlies":681,"igh":682,"sc":683,"Ġal":684,"Ġdeep":685,"Ġhand":686,"ich":687,"ations":688,"Ġupon":689,"na":690,"Ġfin":691,"Ġfree":692,"Ġyourself":693,"ile":694,"Ġstar":695,"live":696,"when":697,"Ġfeed":698,"not":699,"pe":700,"so":701,"Ġhere":702,"ark":703,"lose":704,"rif":705,"aiting":706,"Ġthought":707,"aa":708,"come":709,"watch":710,"Ġmust":711,"Ġday":712,"ery":713,"ory":714,"Ġle":715,"Ġnew":716,"Ġchild":717,"lack":718,"nt":719,"rist":720,"we":721,"Ġbr":722,"eas":723,"Ġem":724,"Ġsouls":725,"tern":726,"Ġheaven":727,"ab":728,"ph":729,"wn":730,"Ġthink":731,"Ġsatan":732,"youll":733,"Ġter":734,"Ġtru":735,"Ġhun":736,"ower":737,"Ġwhere":738,"reaming":739,"per":740,"int":741,"ould":742,"Ġhigh":743,"Ġnothing":744,"Ġkeep":745,"let":746,"bl":747,"ove":748,"ose":749,"pul":750,"ual":751,"Ġri":752,"that":753,"Ġca":754,"Ġetern":755,"theres":756,"Ġstop":757,"Ġlook":758,"Ġfinal":759,"cy":760,"just":761,"mor":762,"pre":763,"Ġfight":764,"ans":765,"Ġbrain":766,"arch":767,"aste":768,"Ġfuckin":769,"blood":770,"fer":771,"ss":772,"satan":773,"Ġill":774,"this":775,"Ġbody":776,"iss":777,"Ġhuman":778,"Ġname":779,"Ġevil":780,"ligion":781,"ress":782,"iolence":783,"cant":784,"ft":785,"gu":786,"ious":787,"oll":788,"ront":789,"ture":790,"Ġsm":791,"ating":792,"Ġble":793,"Ġhim":794,"orture":795,"cause":796,"Ġbleed":797,"ys":798,"Ġyoull":799,"Ġdri":800,"Ġhe":801,"ered":802,"empt":803,"Ġlost":804,"Ġrun":805,"Ġterror":806,"burn":807,"ced":808,"fight":809,"lea":810,"Ġmake":811,"Ġfall":812,"Ġwont":813,"Ġdes":814,"angel":815,"ense":816,"Ġnear":817,"Ġpr":818,"Ġreg":819,"âĢĻ":820,"Ġwhen":821,"Ġvictim":822,"ace":823,"fy":824,"ned":825,"Ġsin":826,"Ġdest":827,"Ġborn":828,"Ġblack":829,"Ġobs":830,"Ġhow":831,"Ġlust":832,"Ġpla":833,"step":834,"Ġstand":835,"ression":836,"suicide":837,"every":838,"iv":839,"ject":840,"Ġour":841,"read":842,"Ġwatch":843,"Ġlast":844,"ash":845,"ession":846,"ets":847,"Ġfuture":848,"Ġlove":849,"Ġscreams":850,"Ġatt":851,"Ġskin":852,"bleed":853,"aos":854,"from":855,"ris":856,"war":857,"Ġar":858,"anity":859,"ens":860,"Ġcry":861,"Ġres":862,"Ġreality":863,"Ġsouth":864,"Ġbreath":865,"but":866,"de":867,"led":868,"turn":869,"Ġy":870,"Ġve":871,"Ġtill":872,"Ġoff":873,"ite":874,"Ġinf":875,"Ġpower":876,"ays":877,"ury":878,"Ġshow":879,"Ġgods":880,"what":881,"elp":882,"cre":883,"min":884,"man":885,"rust":886,"sy":887,"side":888,"Ġalive":889,"Ġdam":890,"Ġdark":891,"Ġback":892,"Ġcold":893,"Ġho":894,"ross":895,"ical":896,"Ġgun":897,"Ġget":898,"Ġbefore":899,"earch":900,"Ġfaith":901,"Ġblind":902,"kill":903,"oc":904,"Ġthere":905,"Ġdreams":906,"Ġown":907,"Ġcor":908,"itt":909,"Ġint":910,"Ġpo":911,"Ġgrow":912,"Ġdem":913,"aster":914,"Ġcannot":915,"Ġoutside":916,"Ġsoci":917,"ollow":918,"com":919,"dis":920,"feel":921,"ial":922,"rate":923,"ught":924,"Ġsl":925,"Ġmer":926,"Ġmass":927,"Ġfore":928,"Ġturn":929,"Ġforce":930,"aken":931,"irst":932,"Ġgrave":933,"ds":934,"dom":935,"ein":936,"ger":937,"get":938,"pare":939,"tal":940,"Ġ(":941,"Ġqu":942,"Ġtorture":943,"Ġover":944,"Ġother":945,"Ġcre":946,"Ġpray":947,"Ġgein":948,"art":949,"Ġever":950,"Ġlight":951,"Ġlives":952,"Ġred":953,"Ġreal":954,"Ġreign":955,"Ġkne":956,"Ġwithout":957,"Ġshall":958,"Ġthats":959,"where":960,"Ġsky":961,"rifice":962,"Ġforever":963,"aits":964,"day":965,"dont":966,"other":967,"take":968,"Ġthr":969,"Ġsay":970,"Ġsome":971,"Ġmis":972,"Ġmakes":973,"Ġmade":974,"Ġfind":975,"Ġdying":976,"Ġbut":977,"Ġcall":978,"Ġcross":979,"Ġhelp":980,"Ġtoo":981,"ions":982,"Ġgates":983,"Ġcoming":984,"pped":985,"Ġthoughts":986,"ces":987,"close":988,"ier":989,"ls":990,"line":991,"ni":992,"ning":993,"rong":994,"zen":995,"Ġear":996,"Ġson":997,"ang":998,"Ġking":999,"âĢħthe":1000,"Ġwithin":1001,"Ġminds":1002,"Ġscreaming":1003,"Ġsword":1004,"Ġabove":1005,"ize":1006,"Ġstarts":1007,"born":1008,"die":1009,"ec":1010,"evil":1011,"fu":1012,"ha":1013,"hold":1014,"ia":1015,"oice":1016,"ush":1017,"Ġ-":1018,"Ġsla":1019,"Ġwalls":1020,"Ġdom":1021,"Ġtw":1022,"Ġtear":1023,"ert":1024,"atter":1025,"atred":1026,"eak":1027,"ease":1028,"ene":1029,"Ġlaw":1030,"rozen":1031,"Ġgot":1032,"Ġliving":1033,"urder":1034,"unting":1035,"fect":1036,"life":1037,"isten":1038,"ures":1039,"Ġnightm":1040,"Ġheart":1041,"Ġrot":1042,"Ġbegins":1043,"Ġvictims":1044,"age":1045,"des":1046,"dest":1047,"dem":1048,"hell":1049,"pa":1050,"sing":1051,"ved":1052,"Ġaround":1053,"onna":1054,"Ġfollow":1055,"Ġwas":1056,"Ġtom":1057,"Ġgonna":1058,"Ġreas":1059,"look":1060,"Ġstill":1061,"Ġwhy":1062,"Ġviolence":1063,"ople":1064,"pping":1065,"Ġconf":1066,"Ġeternity":1067,"prepare":1068,"Ġknees":1069,"Ġreason":1070,"cing":1071,"cont":1072,"cast":1073,"fall":1074,"oot":1075,"til":1076,"Ġthings":1077,"Ġsli":1078,"Ġsick":1079,"Ġaf":1080,"eace":1081,"Ġcr":1082,"Ġcra":1083,"Ġher":1084,"Ġgame":1085,"Ġbeen":1086,"right":1087,"Ġwho":1088,"adist":1089,"Ġdemon":1090,"ruction":1091,"living":1092,"Ġspread":1093,"Ġkilling":1094,"ctions":1095,"Ġsac":1096,"Ġeverything":1097,"never":1098,"attered":1099,"...":1100,"Ġleft":1101,"Ġbring":1102,"Ġtruth":1103,"Ġhimself":1104,"Ġveins":1105,"!!":1106,"co":1107,"ix":1108,"ue":1109,"ĠĊ":1110,"ines":1111,"Ġsil":1112,"Ġfirst":1113,"Ġwings":1114,"Ġdr":1115,"Ġden":1116,"Ġdist":1117,"Ġtaste":1118,"esus":1119,"Ġbull":1120,"Ġline":1121,"Ġlord":1122,"imp":1123,"Ġive":1124,"Ġdev":1125,"Ġlifeless":1126,"ott":1127,"otic":1128,"Ġrage":1129,"Ġdisci":1130,"Ġsave":1131,"conf":1132,"awaiting":1133,"alking":1134,"Ġearth":1135,"br":1136,"do":1137,"face":1138,"human":1139,"mem":1140,"ped":1141,"pse":1142,"ze":1143,"Ġsor":1144,"Ġad":1145,"Ġair":1146,"Ġyouth":1147,"Ġfast":1148,"Ġdrain":1149,"Ġbo":1150,"Ġhor":1151,"Ġla":1152,"Ġpe":1153,"Ġper":1154,"Ġgive":1155,"als":1156,"Ġrest":1157,"Ġreligion":1158,"adness":1159,"Ġshit":1160,"Ġchrist":1161,"Ġwords":1162,"emy":1163,"ution":1164,"Ġseed":1165,"Ġmany":1166,"Ġinsanity":1167,"Ġplay":1168,"Ġburns":1169,"Ġdemise":1170,"Ġmisery":1171,"Ġkingdom":1172,"fuck":1173,"can":1174,"cid":1175,"kind":1176,"lict":1177,"pet":1178,"sm":1179,"sw":1180,"ty":1181,"ws":1182,"inf":1183,"Ġap":1184,"Ġthem":1185,"Ġfl":1186,"Ġtra":1187,"esca":1188,"ern":1189,"Ġbur":1190,"Ġhates":1191,"ors":1192,"Ġland":1193,"Ġlong":1194,"Ġpsy":1195,"imes":1196,"they":1197,"ants":1198,"Ġdep":1199,"irth":1200,"lying":1201,"Ġchoice":1202,"Ġcomm":1203,"Ġimm":1204,"Ġimp":1205,"Ġrise":1206,"Ġunder":1207,"Ġscar":1208,"Ġsub":1209,"Ġsuf":1210,"sions":1211,"Ġalone":1212,"Ġsatans":1213,"puls":1214,"Ġplace":1215,"Ġattack":1216,"earching":1217,"Ġsociet":1218,"escape":1219,"Ġpsych":1220,"dead":1221,"fes":1222,"gin":1223,"he":1224,"hear":1225,"jesus":1226,"Ġsense":1227,"reat":1228,"religion":1229,"youve":1230,"ony":1231,"Ġyouve":1232,"Ġmr":1233,"Ġtakes":1234,"atory":1235,"each":1236,"Ġcl":1237,"Ġcru":1238,"Ġhatred":1239,"Ġlitt":1240,"itual":1241,"Ġgu":1242,"ale":1243,"odies":1244,"there":1245,"eet":1246,"Ġonce":1247,"ades":1248,"noc":1249,"Ġunf":1250,"Ġendless":1251,"Ġsuicide":1252,"plod":1253,"attle":1254,"ized":1255,"Ġdecay":1256,"watching":1257,"Ġempt":1258,"Ġtrue":1259,"fighting":1260,"Ġdamned":1261,"Ġthrone":1262,"Ġdeny":1263,"Ġhorror":1264,"Ġlittle":1265,"bra":1266,"hind":1267,"ms":1268,"more":1269,"sla":1270,"vis":1271,"ouch":1272,"Ġsame":1273,"ons":1274,"Ġwin":1275,"Ġwere":1276,"Ġwalk":1277,"Ġdra":1278,"Ġdream":1279,"Ġdiv":1280,"atis":1281,"ened":1282,"Ġcar":1283,"Ġlea":1284,"Ġtoday":1285,"Ġpar":1286,"Ġpeace":1287,"Ġel":1288,"Ġansw":1289,"see":1290,"Ġbehind":1291,"chaos":1292,"aking":1293,"adow":1294,"Ġshoot":1295,"shing":1296,"Ġways":1297,"ousand":1298,"Ġpleas":1299,"cons":1300,"Ġburning":1301,"Ġagainst":1302,"iolent":1303,"burning":1304,"Ġdarkness":1305,"confront":1306,"Ġsorrow":1307,"Ġpeople":1308,"deep":1309,"gment":1310,"how":1311,"hil":1312,"head":1313,"iers":1314,"king":1315,"listen":1316,"oin":1317,"pr":1318,"pent":1319,"pray":1320,"vive":1321,"will":1322,"ways":1323,"Ġescape":1324,"Ġslow":1325,"ond":1326,"onight":1327,"Ġmo":1328,"Ġfate":1329,"Ġfalls":1330,"Ġfront":1331,"Ġwan":1332,"Ġdone":1333,"Ġtaken":1334,"Ġcur":1335,"Ġhide":1336,"Ġhold":1337,"orm":1338,"ories":1339,"orment":1340,"Ġlead":1341,"Ġpur":1342,"roy":1343,"vel":1344,"Ġground":1345,"Ġangel":1346,"raise":1347,"lost":1348,"Ġbeing":1349,"Ġstrong":1350,"etern":1351,"ries":1352,"Ġwhore":1353,"ights":1354,"asting":1355,"Ġshould":1356,"Ġshadow":1357,"isted":1358,"endless":1359,"Ġeye":1360,"oles":1361,"Ġjud":1362,"oldiers":1363,"Ġsoon":1364,"Ġseen":1365,"cif":1366,"Ġawaits":1367,"Ġgoing":1368,"Ġmankind":1369,"achine":1370,"Ġanything":1371,"screaming":1372,"aaaa":1373,"Ġhung":1374,"archy":1375,"Ġsmell":1376,"Ġdestruction":1377,"killing":1378,"Ġcorpse":1379,"Ġmercy":1380,"Ġnightmare":1381,"Ġsacrifice":1382,"Ġwanna":1383,"cit":1384,"cle":1385,"ho":1386,"here":1387,"lie":1388,"ping":1389,"vict":1390,"violence":1391,"âģ":1392,"Ġer":1393,"inate":1394,"Ġser":1395,"real":1396,"Ġac":1397,"Ġage":1398,"Ġmut":1399,"Ġmaster":1400,"Ġwake":1401,"Ġtouch":1402,"Ġtonight":1403,"Ġob":1404,"Ġcare":1405,"Ġlate":1406,"ition":1407,"Ġtotal":1408,"Ġpay":1409,"Ġpri":1410,"Ġpure":1411,"Ġpush":1412,"rot":1413,"Ġrep":1414,"Ġreturn":1415,"Ġbecome":1416,"omb":1417,"assion":1418,"Ġstep":1419,"feed":1420,"allow":1421,"aint":1422,"enter":1423,"Ġwhich":1424,"Ġfull":1425,"Ġbloodline":1426,"like":1427,"Ġchaos":1428,"shed":1429,"ult":1430,"Ġself":1431,"Ġrace":1432,"ards":1433,"beat":1434,"cond":1435,"oss":1436,"attack":1437,"monarch":1438,"ichard":1439,"Ġrip":1440,"morse":1441,"satans":1442,"Ġtomb":1443,"Ġsuffer":1444,"Ġsociety":1445,"Ġunfold":1446,"plode":1447,"âģŁ":1448,"by":1449,"ding":1450,"den":1451,"ful":1452,"ging":1453,"his":1454,"ken":1455,"lead":1456,"pen":1457,"ran":1458,"sur":1459,"sadist":1460,"vi":1461,"vid":1462,"thers":1463,"ination":1464,"ount":1465,"Ġthing":1466,"reed":1467,"rest":1468,"ones":1469,"Ġfill":1470,"Ġflow":1471,"Ġwra":1472,"Ġwould":1473,"ane":1474,"eah":1475,"Ġco":1476,"Ġinst":1477,"Ġph":1478,"roken":1479,"ary":1480,"Ġlifes":1481,"Ġreach":1482,"Ġremorse":1483,"Ġbet":1484,"Ġforget":1485,"ains":1486,"ained":1487,"ents":1488,"Ġdefy":1489,"geance":1490,"Ġchest":1491,"Ġseek":1492,"oney":1493,"Ġjoin":1494,"Ġspill":1495,"Ġscream":1496,"Ġsecond":1497,"Ġram":1498,"rying":1499,"rown":1500,"Ġabout":1501,"Ġbreak":1502,"form":1503,"acre":1504,"forever":1505,"Ġenemy":1506,"Ġgrasp":1507,"ichrist":1508,"Ġprice":1509,"Ġobsession":1510,"Ġmassacre":1511,"Ġslips":1512,"Ġsilence":1513,"Ġcommand":1514,"Ġleave":1515,"Ġanswer":1516,"Ġwrath":1517,"bal":1518,"dr":1519,"down":1520,"frozen":1521,"gn":1522,"gance":1523,"jud":1524,"know":1525,"mind":1526,"murder":1527,"par":1528,"pant":1529,"searching":1530,"vol":1531,"xt":1532,"yond":1533,"Ġeas":1534,"inc":1535,"Ġthan":1536,"Ġthose":1537,"Ġsea":1538,"Ġsatis":1539,"Ġthese":1540,"Ġmom":1541,"Ġmine":1542,"Ġmachine":1543,"Ġwon":1544,"Ġwound":1545,"Ġwaiting":1546,"Ġbattle":1547,"Ġhop":1548,"itch":1549,"Ġinnoc":1550,"Ġpa":1551,"Ġpast":1552,"Ġposs":1553,"Ġgen":1554,"Ġanarchy":1555,"Ġread":1556,"Ġreally":1557,"amous":1558,"Ġstone":1559,"Ġstare":1560,"Ġneck":1561,"âĢħyour":1562,"âĢħof":1563,"Ġdece":1564,"Ġdefe":1565,"rug":1566,"Ġvir":1567,"Ġcomes":1568,"Ġspine":1569,"Ġhapp":1570,"pport":1571,"spir":1572,"Ġagony":1573,"elcome":1574,"awn":1575,"ude":1576,"Ġvictory":1577,"Ġsurvive":1578,"Ġalways":1579,"Ġchildren":1580,"Ġbrings":1581,"Ġright":1582,"Ġcapt":1583,"empty":1584,"Ġregre":1585,"ashing":1586,"Ġresist":1587,"Ġgrowing":1588,"Ġquest":1589,"Ġdistrust":1590,"memories":1591,"Ġscars":1592,"Ġpsychotic":1593,"brace":1594,"Ġmoment":1595,"bit":1596,"body":1597,"cl":1598,"cer":1599,"da":1600,"gy":1601,"gth":1602,"ip":1603,"mr":1604,"master":1605,"ple":1606,"ring":1607,"time":1608,"torment":1609,"Ġz":1610,"inct":1611,"into":1612,"Ġthousand":1613,"Ġsy":1614,"Ġsere":1615,"Ġsign":1616,"Ġtheres":1617,"Ġfun":1618,"Ġfound":1619,"Ġwell":1620,"Ġweak":1621,"Ġdawn":1622,"Ġtry":1623,"Ġtrust":1624,"ange":1625,"Ġbru":1626,"eap":1627,"eneath":1628,"Ġclo":1629,"Ġhallow":1630,"Ġpassion":1631,"stand":1632,"rogance":1633,"ication":1634,"illing":1635,"impuls":1636,"Ġanother":1637,"raid":1638,"vern":1639,"vers":1640,"Ġif":1641,"Ġign":1642,"unt":1643,"iles":1644,"Ġstre":1645,"Ġstren":1646,"Ġkiss":1647,"andatory":1648,"ield":1649,"astard":1650,"Ġshe":1651,"ruct":1652,"Ġcomp":1653,"termin":1654,"Ġfaces":1655,"Ġhells":1656,"Ġass":1657,"Ġrichard":1658,"umb":1659,"ortality":1660,"Ġsaved":1661,"Ġeverywhere":1662,"begin":1663,"Ġplead":1664,"ified":1665,"gods":1666,"Ġrule":1667,"Ġrush":1668,"Ġheat":1669,"Ġobsc":1670,"bleeding":1671,"Ġhelpless":1672,"Ġdomain":1673,"Ġempty":1674,"Ġdivine":1675,"confrontations":1676,"Ġobject":1677,"Ġpriest":1678,"Ġrampant":1679,"Ġhope":1680,"Ġhallowed":1681,"impulsive":1682,"Ġstrength":1683,"ail":1684,"able":1685,"bid":1686,"bet":1687,"ded":1688,"gra":1689,"ience":1690,"ipul":1691,"ling":1692,"night":1693,"pro":1694,"power":1695,"ration":1696,"sil":1697,"soldiers":1698,"tw":1699,"tic":1700,"tar":1701,"ugh":1702,"vul":1703,"welcome":1704,"Ġeach":1705,"Ġthro":1706,"Ġside":1707,"Ġsets":1708,"Ġsens":1709,"Ġmen":1710,"Ġmurder":1711,"Ġmadness":1712,"Ġfury":1713,"Ġfrozen":1714,"eric":1715,"Ġbott":1716,"Ġcle":1717,"Ġclose":1718,"Ġhes":1719,"Ġlim":1720,"Ġpen":1721,"icid":1722,"Ġgone":1723,"Ġech":1724,"ram":1725,"Ġbecom":1726,"Ġbeyond":1727,"une":1728,"Ġstalk":1729,"left":1730,"fection":1731,"rive":1732,"ells":1733,"adise":1734,"Ġsound":1735,"Ġdef":1736,"otion":1737,"Ġvie":1738,"Ġvile":1739,"nothing":1740,"Ġride":1741,"Ġending":1742,"Ġrain":1743,"Ġsupport":1744,"deaths":1745,"Ġdisgu":1746,"capt":1747,"behold":1748,"play":1749,"pline":1750,"Ġexist":1751,"icken":1752,"used":1753,"Ġanymore":1754,"Ġbegin":1755,"Ġprey":1756,"Ġfeeding":1757,"Ġhunger":1758,"blind":1759,"ysical":1760,"Ġdripping":1761,"Ġruns":1762,"Ġdestroy":1763,"risal":1764,"Ġholy":1765,"ocide":1766,"nihil":1767,"Ġcrim":1768,"Ġbullet":1769,"Ġdiscipline":1770,"Ġburial":1771,"Ġjudge":1772,"Ġreprisal":1773,"drink":1774,"Ġeasy":1775,"Ġready":1776,"Ġseren":1777,"icidal":1778,"Ġecho":1779,"Ġdisguise":1780,"black":1781,"eg":1782,"fl":1783,"fare":1784,"fane":1785,"gs":1786,"gress":1787,"gott":1788,"hunting":1789,"lt":1790,"lic":1791,"lines":1792,"oh":1793,"olo":1794,"oint":1795,"pag":1796,"run":1797,"rans":1798,"sac":1799,"slow":1800,"tell":1801,"torture":1802,"tichrist":1803,"vent":1804,"well":1805,"ward":1806,"Ġed":1807,"ths":1808,"thes":1809,"Ġsent":1810,"Ġset":1811,"Ġsanity":1812,"reach":1813,"Ġthen":1814,"Ġmor":1815,"Ġmed":1816,"Ġfar":1817,"Ġwaits":1818,"Ġtri":1819,"Ġtimes":1820,"ank":1821,"anic":1822,"ater":1823,"atic":1824,"Ġba":1825,"Ġbirth":1826,"Ġbodies":1827,"Ġbeneath":1828,"east":1829,"ench":1830,"Ġcries":1831,"Ġhour":1832,"Ġlac":1833,"ities":1834,"Ġnone":1835,"Ġprom":1836,"Ġpass":1837,"str":1838,"stalking":1839,"icious":1840,"Ġgl":1841,"aring":1842,"owers":1843,"Ġantichrist":1844,"rapped":1845,"Ġbelie":1846,"cher":1847,"Ġke":1848,"Ġmeans":1849,"Ġitself":1850,"anda":1851,"earn":1852,"ears":1853,"riors":1854,"âĢħa":1855,"ending":1856,"ured":1857,"Ġven":1858,"Ġspir":1859,"Ġsport":1860,"ulation":1861,"Ġthroughout":1862,"ption":1863,"ptic":1864,"Ġration":1865,"Ġatro":1866,"Ġknows":1867,"Ġseven":1868,"kelet":1869,"Ġgovern":1870,"elt":1871,"Ġskull":1872,"Ġplan":1873,"Ġext":1874,"Ġswing":1875,"Ġensla":1876,"gions":1877,"Ġrules":1878,"Ġproph":1879,"soon":1880,"rified":1881,"Ġcaught":1882,"Ġeternally":1883,"Ġlooking":1884,"issing":1885,"Ġstands":1886,"Ġpoint":1887,"Ġsleep":1888,"Ġbutcher":1889,"Ġcalled":1890,"Ġslaught":1891,"Ġtears":1892,"Ġdemons":1893,"Ġlaid":1894,"infamous":1895,"Ġapart":1896,"Ġsubm":1897,"feeding":1898,"Ġphysical":1899,"Ġbetter":1900,"Ġgenocide":1901,"gotten":1902,"paganda":1903,"Ġedge":1904,"af":1905,"act":1906,"action":1907,"bt":1908,"birth":1909,"cil":1910,"cass":1911,"dance":1912,"fle":1913,"hot":1914,"ior":1915,"lves":1916,"madness":1917,"nam":1918,"pain":1919,"put":1920,"pier":1921,"rid":1922,"rance":1923,"some":1924,"tempt":1925,"violent":1926,"Ġid":1927,"ined":1928,"Ġsearch":1929,"reg":1930,"oned":1931,"only":1932,"Ġma":1933,"Ġmight":1934,"Ġfi":1935,"Ġfo":1936,"Ġfri":1937,"Ġwall":1938,"Ġwait":1939,"Ġwild":1940,"Ġwrong":1941,"Ġwater":1942,"Ġdies":1943,"Ġbi":1944,"Ġbound":1945,"Ġold":1946,"Ġopp":1947,"Ġopen":1948,"Ġcount":1949,"Ġhar":1950,"Ġhad":1951,"Ġlines":1952,"itz":1953,"Ġnumb":1954,"Ġpers":1955,"Ġpart":1956,"Ġpier":1957,"Ġpanic":1958,"stem":1959,"roll":1960,"aries":1961,"Ġeven":1962,"selves":1963,"ides":1964,"losing":1965,"ilt":1966,"asph":1967,"anting":1968,"antas":1969,"ental":1970,"etrate":1971,"Ġshred":1972,"Ġseems":1973,"Ġworth":1974,"Ġuse":1975,"Ġwarm":1976,"Ġdeadly":1977,"Ġloose":1978,"Ġjack":1979,"Ġuntil":1980,"Ġknowing":1981,"Ġsecre":1982,"Ġawait":1983,"Ġawaiting":1984,"sport":1985,"Ġdoes":1986,"Ġconvict":1987,"Ġexp":1988,"Ġsweet":1989,"Ġbrea":1990,"Ġbreed":1991,"icked":1992,"forced":1993,"ift":1994,"izing":1995,"Ġroom":1996,"Ġheads":1997,"exp":1998,"Ġsurge":1999,"Ġprofane":2000,"screams":2001,"Ġembrace":2002,"Ġheavens":2003,"Ġkeeps":2004,"Ġfighting":2005,"Ġhumanity":2006,"burns":2007,"lease":2008,"everything":2009,"def":2010,"Ġyeah":2011,"Ġyears":2012,"Ġturning":2013,"ecution":2014,"Ġtwisted":2015,"demned":2016,"pair":2017,"Ġconfession":2018,"Ġafraid":2019,"Ġdrill":2020,"Ġdevast":2021,"Ġboy":2022,"liction":2023,"smell":2024,"Ġclear":2025,"Ġdraws":2026,"Ġcarcass":2027,"Ġparadise":2028,"Ġpleasure":2029,"gments":2030,"Ġcurse":2031,"Ġsuffering":2032,"sadistic":2033,"Ġsatisfy":2034,"Ġcaptor":2035,"Ġstreets":2036,"betray":2037,"Ġbecomes":2038,"captive":2039,"nihilation":2040,"sacrifice":2041,"Ġvengeance":2042,"Ġrationale":2043,"Ġgovernment":2044,"Ġenslave":2045,"temptations":2046,"Ġfriend":2047,"bb":2048,"bodies":2049,"broken":2050,"cur":2051,"city":2052,"dict":2053,"dying":2054,"fear":2055,"ged":2056,"gression":2057,"jo":2058,"ler":2059,"ples":2060,"pise":2061,"pissing":2062,"sou":2063,"son":2064,"uous":2065,"vation":2066,"wor":2067,"wont":2068,"Ġent":2069,"inst":2070,"inci":2071,"infer":2072,"infect":2073,"Ġsal":2074,"Ġsend":2075,"Ġsol":2076,"Ġsadist":2077,"Ġsix":2078,"rend":2079,"Ġact":2080,"Ġmast":2081,"Ġmag":2082,"Ġmother":2083,"Ġmeet":2084,"Ġmoney":2085,"Ġmandatory":2086,"Ġfat":2087,"Ġfell":2088,"Ġfig":2089,"Ġfelt":2090,"Ġwide":2091,"Ġwish":2092,"Ġder":2093,"Ġdro":2094,"Ġdrug":2095,"Ġtell":2096,"anse":2097,"atures":2098,"Ġbar":2099,"Ġbury":2100,"ission":2101,"ency":2102,"Ġcould":2103,"Ġhy":2104,"Ġholes":2105,"order":2106,"itness":2107,"Ġtomor":2108,"Ġtoler":2109,"Ġinc":2110,"Ġinfection":2111,"Ġpraise":2112,"stri":2113,"staring":2114,"ics":2115,"Ġgreed":2116,"aly":2117,"Ġmyself":2118,"seen":2119,"vering":2120,"Ġbelow":2121,"urre":2122,"Ġones":2123,"ames":2124,"asing":2125,"Ġstain":2126,"Ġstab":2127,"Ġmean":2128,"Ġmemor":2129,"antic":2130,"Ġnext":2131,"ruck":2132,"lies":2133,"Ġviolent":2134,"emical":2135,"Ġwarfare":2136,"Ġspe":2137,"Ġspell":2138,"who":2139,"why":2140,"Ġaside":2141,"Ġimag":2142,"Ġhabit":2143,"Ġhaunt":2144,"Ġunlea":2145,"Ġunknow":2146,"Ġknown":2147,"Ġworlds":2148,"cious":2149,"Ġrape":2150,"Ġwanted":2151,"Ġsuch":2152,"spilling":2153,"acks":2154,"Ġsaid":2155,"Ġdoom":2156,"insanity":2157,"please":2158,"Ġfeeling":2159,"Ġabuse":2160,"exile":2161,"Ġornam":2162,"pses":2163,"Ġruled":2164,"Ġsurreal":2165,"Ġprejud":2166,"lete":2167,"prem":2168,"Ġrunning":2169,"leave":2170,"Ġdespise":2171,"Ġplagu":2172,"rising":2173,"Ġart":2174,"Ġyet":2175,"Ġdamn":2176,"Ġintens":2177,"Ġpool":2178,"holds":2179,"demons":2180,"Ġtombs":2181,"Ġslip":2182,"Ġdrink":2183,"imple":2184,"Ġdepths":2185,"Ġelse":2186,"pride":2187,"Ġmoon":2188,"Ġholds":2189,"Ġshadows":2190,"holy":2191,"Ġflows":2192,"Ġspilled":2193,"Ġbreaks":2194,"Ġwounds":2195,"Ġpossession":2196,"Ġdefeat":2197,"Ġregret":2198,"Ġzone":2199,"Ġobscene":2200,"silent":2201,"Ġthroat":2202,"Ġstalks":2203,"Ġcrimson":2204,"Ġserenade":2205,"Ġglass":2206,"Ġsubmission":2207,"Ġdoesnt":2208,"betrayed":2209,"souls":2210,"Ġtomorrow":2211,"Ġmemories":2212,"Ġhabitat":2213,"Ġornaments":2214,"Ġprejudice":2215,"**":2216,"ave":2217,"ares":2218,"bre":2219,"ber":2220,"bar":2221,"cor":2222,"cess":2223,"cru":2224,"cus":2225,"dra":2226,"ders":2227,"dreams":2228,"fs":2229,"fire":2230,"flesh":2231,"got":2232,"hh":2233,"hy":2234,"has":2235,"ivil":2236,"ips":2237,"kin":2238,"lit":2239,"lasting":2240,"must":2241,"mble":2242,"pol":2243,"press":2244,"point":2245,"sed":2246,"skelet":2247,"tear":2248,"test":2249,"taste":2250,"uch":2251,"val":2252,"wing":2253,"were":2254,"walk":2255,"Ġ9":2256,"Ġround":2257,"through":2258,"throw":2259,"ince":2260,"iness":2261,"inction":2262,"inject":2263,"Ġsong":2264,"rel":2265,"resh":2266,"Ġaction":2267,"Ġmort":2268,"Ġmatter":2269,"Ġmaint":2270,"Ġmuch":2271,"Ġfing":2272,"Ġfla":2273,"Ġfame":2274,"Ġfren":2275,"Ġwaste":2276,"Ġwitch":2277,"Ġweap":2278,"Ġwicked":2279,"Ġdid":2280,"Ġdust":2281,"Ġdign":2282,"Ġdied":2283,"Ġdorm":2284,"Ġtest":2285,"ano":2286,"ature":2287,"Ġbomb":2288,"Ġowe":2289,"ised":2290,"eager":2291,"ener":2292,"Ġcas":2293,"Ġcivil":2294,"Ġlun":2295,"Ġtoge":2296,"Ġnation":2297,"Ġpie":2298,"Ġpull":2299,"stant":2300,"stab":2301,"roying":2302,"ices":2303,"Ġgreat":2304,"arge":2305,"imid":2306,"rashing":2307,"raping":2308,"their":2309,"thetic":2310,"verbal":2311,"Ġrem":2312,"Ġreject":2313,"lock":2314,"loca":2315,"Ġbeat":2316,"ampa":2317,"Ġstrain":2318,"Ġstorm":2319,"aked":2320,"rip":2321,"rives":2322,"ribut":2323,"ripping":2324,"âĢħh":2325,"âĢħto":2326,"Ġfuse":2327,"Ġbloody":2328,"Ġbloodshed":2329,"istic":2330,"Ġvis":2331,"Ġvain":2332,"Ġchange":2333,"Ġloss":2334,"Ġfail":2335,"while":2336,"Ġritual":2337,"Ġhaunting":2338,"Ġunrest":2339,"Ġkills":2340,"Ġawake":2341,"Ġsuck":2342,"spect":2343,"Ġgood":2344,"Ġdiss":2345,"Ġdisease":2346,"Ġeveryday":2347,"Ġaggression":2348,"igate":2349,"Ġconstant":2350,"inside":2351,"Ġfeels":2352,"quer":2353,"Ġweb":2354,"acy":2355,"agram":2356,"ishment":2357,"Ġdecays":2358,"Ġdecline":2359,"expl":2360,"Ġused":2361,"Ġsurrend":2362,"Ġpropaganda":2363,"Ġstaring":2364,"Ġfeeds":2365,"Ġdays":2366,"Ġlevel":2367,"Ġlegions":2368,"Ġchilds":2369,"Ġsatanic":2370,"Ġeternal":2371,"guish":2372,"Ġbleeding":2373,"Ġdrive":2374,"Ġdrives":2375,"Ġfallen":2376,"Ġdesire":2377,"Ġdespair":2378,"Ġwatching":2379,"warriors":2380,"manipul":2381,"Ġdarkened":2382,"Ġholoca":2383,"Ġintent":2384,"Ġgrows":2385,"Ġsocial":2386,"comp":2387,"Ġmerc":2388,"Ġrealize":2389,"anged":2390,"Ġtearing":2391,"control":2392,"Ġafter":2393,"Ġspreading":2394,"!!!":2395,"bring":2396,"Ġboil":2397,"Ġlaugh":2398,"Ġflames":2399,"heart":2400,"Ġcrucif":2401,"visions":2402,"Ġslowly":2403,"velation":2404,"Ġmutil":2405,"Ġunfolds":2406,"Ġinstigate":2407,"Ġwonder":2408,"Ġinnocent":2409,"Ġpacif":2410,"termination":2411,"vulsions":2412,"Ġbottom":2413,"Ġpenetrate":2414,"Ġbapt":2415,"Ġpromise":2416,"Ġextinction":2417,"Ġconviction":2418,"Ġbreathe":2419,"world":2420,"instinct":2421,"infectious":2422,"Ġderanged":2423,"Ġunknown":2424,"skeletons":2425,"Ġfrenz":2426,"Ġweapon":2427,"Ġdignity":2428,"Ġdormant":2429,"Ġtogether":2430,"ampaign":2431,"Ġsurrender":2432,"Ġholocaust":2433,"??":2434,"ap":2435,"ase":2436,"app":2437,"aves":2438,"bing":2439,"bed":2440,"bru":2441,"bers":2442,"bound":2443,"bert":2444,"bastard":2445,"cat":2446,"cent":2447,"cir":2448,"cend":2449,"crow":2450,"crying":2451,"dred":2452,"dark":2453,"fra":2454,"fort":2455,"free":2456,"first":2457,"flying":2458,"gad":2459,"gious":2460,"gatory":2461,"her":2462,"hom":2463,"hem":2464,"hatred":2465,"iation":2466,"ked":2467,"mal":2468,"mless":2469,"makes":2470,"pit":2471,"pid":2472,"pure":2473,"pression":2474,"rand":2475,"slic":2476,"simple":2477,"ta":2478,"tribut":2479,"uci":2480,"vo":2481,"vance":2482,"vage":2483,"vail":2484,"wide":2485,"wings":2486,"inue":2487,"invol":2488,"ough":2489,"Ġthreat":2490,"Ġthrown":2491,"Ġsearching":2492,"Ġsights":2493,"repent":2494,"Ġash":2495,"Ġapp":2496,"Ġaint":2497,"onic":2498,"Ġmay":2499,"Ġmot":2500,"Ġmatch":2501,"Ġmark":2502,"Ġmove":2503,"Ġfra":2504,"Ġfeast":2505,"Ġwind":2506,"Ġwear":2507,"Ġtalk":2508,"Ġtreach":2509,"anning":2510,"annihilation":2511,"anguish":2512,"era":2513,"ering":2514,"eral":2515,"Ġbest":2516,"Ġbright":2517,"Ġbones":2518,"Ġbroken":2519,"Ġbastard":2520,"ison":2521,"eal":2522,"Ġce":2523,"Ġcity":2524,"Ġhome":2525,"Ġhang":2526,"Ġhades":2527,"Ġlying":2528,"Ġlearn":2529,"itate":2530,"itive":2531,"itting":2532,"Ġinfer":2533,"Ġyours":2534,"Ġyourselves":2535,"Ġpol":2536,"Ġpul":2537,"Ġpits":2538,"Ġpage":2539,"sts":2540,"still":2541,"icy":2542,"icate":2543,"icial":2544,"arrogance":2545,"ales":2546,"imate":2547,"implode":2548,"imitive":2549,"Ġlibert":2550,"rad":2551,"racy":2552,"semble":2553,"Ġrebirth":2554,"lots":2555,"child":2556,"christ":2557,"urch":2558,"uries":2559,"ung":2560,"ily":2561,"americ":2562,"cks":2563,"Ġstim":2564,"Ġstate":2565,"Ġsteel":2566,"Ġstruct":2567,"Ġkn":2568,"Ġmel":2569,"Ġmeant":2570,"Ġform":2571,"Ġwhite":2572,"ading":2573,"cting":2574,"âĢħi":2575,"âĢħit":2576,"Ġdeb":2577,"Ġdevil":2578,"Ġshut":2579,"Ġshattered":2580,"rupt":2581,"ligious":2582,"endable":2583,"Ġvice":2584,"Ġchance":2585,"Ġchurch":2586,"shack":2587,"shatter":2588,"shattered":2589,"shades":2590,"Ġmindless":2591,"olish":2592,"Ġult":2593,"Ġwarring":2594,"Ġfactions":2595,"Ġimmor":2596,"oldier":2597,"Ġkilled":2598,"Ġscorn":2599,"Ġscene":2600,"Ġworldwide":2601,"opath":2602,"oppression":2603,"Ġends":2604,"Ġsex":2605,"cify":2606,"Ġraped":2607,"Ġamong":2608,"Ġamput":2609,"Ġsaves":2610,"Ġeveryone":2611,"Ġconquer":2612,"Ġconvulsions":2613,"oking":2614,"Ġskys":2615,"Ġcontrols":2616,"beg":2617,"because":2618,"raining":2619,"Ġexplode":2620,"Ġexecution":2621,"new":2622,"forgotten":2623,"Ġneedle":2624,"within":2625,"iolate":2626,"sub":2627,"Ġdeclines":2628,"exper":2629,"Ġensemble":2630,"Ġorders":2631,"Ġanyone":2632,"Ġpreach":2633,"Ġprevail":2634,"Ġstart":2635,"people":2636,"Ġemotion":2637,"Ġhundred":2638,"integ":2639,"Ġcause":2640,"Ġsmall":2641,"Ġsmiles":2642,"Ġprinci":2643,"Ġregard":2644,"Ġregress":2645,"Ġregression":2646,"Ġplacid":2647,"everyone":2648,"Ġarrogance":2649,"Ġarrive":2650,"Ġcryptic":2651,"Ġresurre":2652,"Ġshowing":2653,"Ġintense":2654,"Ġslashing":2655,"Ġcreation":2656,"Ġcreations":2657,"ecies":2658,"have":2659,"Ġtwil":2660,"ertips":2661,"destruction":2662,"destroying":2663,"pathetic":2664,"looking":2665,"Ġbullets":2666,"Ġdisciples":2667,"Ġaddict":2668,"Ġperfect":2669,"Ġtrapped":2670,"Ġdepression":2671,"Ġimmortality":2672,"religions":2673,"Ġguess":2674,"Ġemptiness":2675,"Ġelude":2676,"praying":2677,"eternal":2678,"victim":2679,"beaten":2680,"vida":2681,"Ġinnocence":2682,"Ġdeceit":2683,"spiritual":2684,"Ġvictorys":2685,"Ġsym":2686,"Ġsystem":2687,"Ġsigns":2688,"Ġfuneral":2689,"Ġbrush":2690,"Ġcomplete":2691,"Ġpleading":2692,"graze":2693,"twisted":2694,"Ġsensations":2695,"Ġcleans":2696,"Ġlimbs":2697,"Ġview":2698,"ology":2699,"Ġmorbid":2700,"Ġmedia":2701,"Ġlacer":2702,"stricken":2703,"Ġbelieve":2704,"Ġsleeping":2705,"Ġslaughter":2706,"after":2707,"Ġharmless":2708,"Ġpierce":2709,"rolled":2710,"expendable":2711,"Ġsalvation":2712,"Ġfatal":2713,"Ġfigures":2714,"Ġdrop":2715,"Ġtolerance":2716,"pressure":2717,"Ġmaintain":2718,"Ġfingertips":2719,"instinctive":2720,"circle":2721,"gadda":2722,"tribution":2723,"ucifer":2724,"repentless":2725,"Ġinferno":2726,"Ġpageants":2727,"children":2728,"shackled":2729,"Ġultimate":2730,"Ġamputation":2731,"aus":2732,"aught":2733,"bury":2734,"bush":2735,"backs":2736,"count":2737,"du":2738,"dds":2739,"dden":2740,"ey":2741,"eat":2742,"fa":2743,"fit":2744,"fill":2745,"fri":2746,"four":2747,"fied":2748,"gid":2749,"gul":2750,"ground":2751,"gery":2752,"hes":2753,"hea":2754,"har":2755,"help":2756,"holes":2757,"iac":2758,"ks":2759,"long":2760,"lord":2761,"lattered":2762,"mill":2763,"may":2764,"ny":2765,"ner":2766,"oo":2767,"obt":2768,"pers":2769,"pum":2770,"peace":2771,"praise":2772,"rat":2773,"rit":2774,"sop":2775,"sick":2776,"seas":2777,"sicken":2778,"times":2779,"taking":2780,"trans":2781,"uid":2782,"ubl":2783,"viv":2784,"vanity":2785,"ware":2786,"wash":2787,"witz":2788,"ych":2789,"yran":2790,"yeah":2791,"zes":2792,"zed":2793,"Ġur":2794,"Ġrow":2795,"Ġeager":2796,"thr":2797,"then":2798,"thousand":2799,"ining":2800,"inite":2801,"innoc":2802,"ouse":2803,"Ġsing":2804,"Ġsie":2805,"Ġsoldiers":2806,"reality":2807,"return":2808,"refle":2809,"religious":2810,"Ġach":2811,"Ġary":2812,"ingest":2813,"Ġmin":2814,"Ġmice":2815,"Ġmiss":2816,"Ġmental":2817,"Ġfantas":2818,"Ġwast":2819,"Ġwitness":2820,"Ġdon":2821,"Ġdrif":2822,"Ġdaught":2823,"Ġtro":2824,"Ġtar":2825,"Ġtempt":2826,"Ġtreat":2827,"Ġtrans":2828,"Ġtyran":2829,"esthes":2830,"any":2831,"erous":2832,"atonic":2833,"Ġbone":2834,"Ġbab":2835,"Ġbene":2836,"Ġblock":2837,"Ġoh":2838,"Ġodds":2839,"isions":2840,"ening":2841,"ension":2842,"enjo":2843,"Ġcure":2844,"Ġcame":2845,"Ġcoll":2846,"Ġcattle":2847,"Ġcells":2848,"Ġhard":2849,"Ġhalls":2850,"Ġhouse":2851,"orch":2852,"Ġlot":2853,"Ġleath":2854,"Ġlisten":2855,"itude":2856,"Ġtoy":2857,"Ġtold":2858,"Ġinv":2859,"Ġinter":2860,"Ġinfect":2861,"Ġpun":2862,"Ġpest":2863,"Ġpres":2864,"Ġpath":2865,"Ġpowers":2866,"stains":2867,"strapped":2868,"struck":2869,"roding":2870,"Ġgas":2871,"Ġgho":2872,"aration":2873,"array":2874,"aline":2875,"imb":2876,"Ġequ":2877,"Ġanim":2878,"Ġanesthes":2879,"Ġlived":2880,"raf":2881,"rap":2882,"sec":2883,"sewn":2884,"sels":2885,"iding":2886,"idual":2887,"cept":2888,"ceiv":2889,"Ġrelie":2890,"Ġrelease":2891,"Ġretribution":2892,"love":2893,"lobal":2894,"Ġbelong":2895,"chemical":2896,"chwitz":2897,"unity":2898,"under":2899,"unlea":2900,"until":2901,"ility":2902,"Ġnobl":2903,"Ġkni":2904,"lets":2905,"feren":2906,"Ġdeaths":2907,"entless":2908,"adul":2909,"âĢħin":2910,"âĢħcon":2911,"âĢħthat":2912,"âĢħlead":2913,"ieve":2914,"Ġdeface":2915,"Ġshame":2916,"Ġshining":2917,"istry":2918,"Ġvanity":2919,"Ġchos":2920,"shitt":2921,"showers":2922,"onely":2923,"laim":2924,"ineering":2925,"lessly":2926,"eman":2927,"Ġcommon":2928,"ters":2929,"Ġlose":2930,"Ġlosing":2931,"Ġgodless":2932,"Ġfathers":2933,"uty":2934,"Ġspl":2935,"Ġspray":2936,"Ġspace":2937,"Ġspeak":2938,"ulate":2939,"Ġunw":2940,"Ġundead":2941,"umm":2942,"ops":2943,"Ġcontain":2944,"Ġcontinue":2945,"Ġsees":2946,"ortion":2947,"Ġawaken":2948,"Ġsuprem":2949,"Ġsudden":2950,"spi":2951,"splattered":2952,"Ġdisse":2953,"venge":2954,"vengeance":2955,"Ġsavi":2956,"Ġcons":2957,"Ġcondemned":2958,"before":2959,"beware":2960,"Ġdownfall":2961,"Ġplight":2962,"off":2963,"pleas":2964,"Ġexcit":2965,"next":2966,"Ġblame":2967,"Ġblade":2968,"Ġbliss":2969,"Ġblasph":2970,"blem":2971,"Ġhasnt":2972,"quitt":2973,"acinate":2974,"ify":2975,"ification":2976,"suicidal":2977,"Ġheard":2978,"Ġhearts":2979,"using":2980,"aged":2981,"ished":2982,"Ġdecide":2983,"Ġenough":2984,"renaline":2985,"Ġbegun":2986,"psych":2987,"Ġsurround":2988,"Ġalong":2989,"Ġaltar":2990,"Ġhands":2991,"aah":2992,"abolish":2993,"abacinate":2994,"Ġhunt":2995,"Ġhigher":2996,"blame":2997,"thats":2998,"ressed":2999,"Ġdrips":3000,"Ġprimitive":3001,"Ġsince":3002,"Ġsinful":3003,"Ġobser":3004,"dev":3005,"turning":3006,"Ġinfest":3007,"Ġinfliction":3008,"Ġinfinite":3009,"creating":3010,"Ġhole":3011,"Ġblindly":3012,"Ġcorpses":3013,"coming":3014,"feeling":3015,"Ġturns":3016,"Ġoverd":3017,"Ġcreating":3018,"Ġeverlasting":3019,"Ġreigns":3020,"Ġthrill":3021,"Ġmisfort":3022,"having":3023,"Ġslave":3024,"Ġslaves":3025,"Ġdominate":3026,"Ġdomineering":3027,"ertain":3028,"Ġnightmares":3029,"desec":3030,"destroy":3031,"destruct":3032,"hello":3033,"Ġconflict":3034,"falling":3035,"Ġcraw":3036,"Ġcracks":3037,"Ġsacred":3038,"cover":3039,"humanity":3040,"member":3041,"Ġadrenaline":3042,"Ġperpet":3043,"Ġseeds":3044,"infilt":3045,"Ġfluid":3046,"Ġlonger":3047,"Ġimmense":3048,"Ġimpal":3049,"Ġunderground":3050,"Ġsubject":3051,"Ġdivide":3052,"seeking":3053,"Ġshooting":3054,"Ġpleasures":3055,"consum":3056,"conscious":3057,"pentagram":3058,"Ġmothers":3059,"Ġcursed":3060,"Ġpurity":3061,"Ġpurgatory":3062,"Ġangels":3063,"Ġstronger":3064,"eternity":3065,"eternally":3066,"aaaaaaaa":3067,"Ġserve":3068,"Ġserpent":3069,"Ġacquitt":3070,"Ġmutants":3071,"Ġpushing":3072,"Ġpushed":3073,"rancid":3074,"surgery":3075,"Ġinstinct":3076,"Ġjoining":3077,"knowing":3078,"Ġdefeated":3079,"Ġvirt":3080,"Ġhappy":3081,"Ġregrets":3082,"ipation":3083,"Ġignore":3084,"ielding":3085,"Ġviews":3086,"playing":3087,"Ġjudgement":3088,"Ġechoing":3089,"Ġkeys":3090,"Ġprophecies":3091,"pierced":3092,"Ġidi":3093,"Ġfires":3094,"Ġfool":3095,"Ġcountry":3096,"Ġshredding":3097,"Ġjackals":3098,"Ġexpect":3099,"Ġbreeds":3100,"Ġsurgeon":3101,"Ġdevastation":3102,"inferior":3103,"Ġmasters":3104,"Ġmagic":3105,"Ġmotherfuck":3106,"Ġhyp":3107,"Ġincest":3108,"stripped":3109,"Ġstabbing":3110,"Ġmeaning":3111,"anticipation":3112,"Ġspeed":3113,"Ġimages":3114,"Ġplague":3115,"Ġdamnation":3116,"break":3117,"baric":3118,"drawn":3119,"injecting":3120,"Ġlunatic":3121,"Ġpiece":3122,"manipulated":3123,"Ġmercury":3124,"Ġcrucifix":3125,"Ġbaptized":3126,"catatonic":3127,"crowded":3128,"fragments":3129,"malicious":3130,"random":3131,"sliced":3132,"Ġtreacherous":3133,"Ġstimulation":3134,"Ġstructure":3135,"Ġdebris":3136,"Ġimmoral":3137,"begging":3138,"experience":3139,"Ġprinciple":3140,"Ġintensely":3141,"Ġtwilights":3142,"Ġlacerated":3143,"auschwitz":3144,"eyes":3145,"frigid":3146,"millions":3147,"ooth":3148,"obtained":3149,"pumped":3150,"sickening":3151,"Ġurge":3152,"thousands":3153,"innocence":3154,"Ġsiege":3155,"Ġachieve":3156,"Ġaryan":3157,"Ġfantasies":3158,"Ġtroops":3159,"Ġtemptation":3160,"Ġtyranny":3161,"Ġbaby":3162,"Ġbenefit":3163,"Ġanesthesia":3164,"ceived":3165,"Ġnoblest":3166,"Ġknife":3167,"Ġchosen":3168,"shitty":3169,"Ġblasphemy":3170,"Ġmisfortune":3171,"Ġacquittance":3172,"abs":3173,"avid":3174,"bur":3175,"bomb":3176,"breed":3177,"bones":3178,"cut":3179,"cold":3180,"cum":3181,"cuous":3182,"certain":3183,"dea":3184,"dim":3185,"dif":3186,"ever":3187,"ech":3188,"ection":3189,"fat":3190,"far":3191,"fly":3192,"flow":3193,"fantas":3194,"give":3195,"gies":3196,"gers":3197,"gos":3198,"gger":3199,"greg":3200,"gener":3201,"global":3202,"high":3203,"ilo":3204,"iant":3205,"iate":3206,"iven":3207,"iving":3208,"jection":3209,"kes":3210,"light":3211,"learn":3212,"lonely":3213,"mes":3214,"mic":3215,"mad":3216,"mist":3217,"make":3218,"march":3219,"making":3220,"mandatory":3221,"mortality":3222,"nate":3223,"nings":3224,"ob":3225,"ock":3226,"prom":3227,"pot":3228,"pose":3229,"push":3230,"ron":3231,"rine":3232,"rise":3233,"rick":3234,"rated":3235,"rition":3236,"sight":3237,"sif":3238,"sni":3239,"satis":3240,"skin":3241,"soldier":3242,"ti":3243,"ten":3244,"tti":3245,"uated":3246,"ually":3247,"uary":3248,"upid":3249,"vy":3250,"vals":3251,"violate":3252,"way":3253,"was":3254,"wers":3255,"wade":3256,"weak":3257,"yx":3258,"zors":3259,"Ġ\"":3260,"thal":3261,"thod":3262,"thrown":3263,"inv":3264,"inish":3265,"inating":3266,"inert":3267,"inher":3268,"innate":3269,"oubt":3270,"repe":3271,"release":3272,"Ġaaah":3273,"ingrate":3274,"Ġmess":3275,"Ġmart":3276,"Ġmult":3277,"Ġfoot":3278,"Ġfright":3279,"Ġfix":3280,"Ġwis":3281,"Ġwire":3282,"Ġdif":3283,"Ġdread":3284,"Ġdoubt":3285,"lls":3286,"Ġtil":3287,"Ġtorn":3288,"Ġtong":3289,"Ġtorment":3290,"Ġtasting":3291,"Ġtaint":3292,"Ġtrick":3293,"anct":3294,"eril":3295,"erves":3296,"Ġbea":3297,"Ġbro":3298,"Ġbear":3299,"Ġbla":3300,"Ġbits":3301,"Ġbatt":3302,"Ġbated":3303,"Ġbitch":3304,"ism":3305,"iscuous":3306,"enthr":3307,"Ġcy":3308,"Ġcent":3309,"Ġcast":3310,"Ġcalls":3311,"Ġcunting":3312,"Ġcampaign":3313,"Ġclaim":3314,"Ġhur":3315,"oring":3316,"orance":3317,"orated":3318,"orious":3319,"Ġlit":3320,"Ġlay":3321,"Ġinit":3322,"Ġincom":3323,"Ġna":3324,"Ġnest":3325,"Ġpear":3326,"Ġpred":3327,"Ġpound":3328,"Ġger":3329,"Ġgift":3330,"altar":3331,"Ġeat":3332,"Ġevis":3333,"Ġegos":3334,"Ġlips":3335,"raction":3336,"ractions":3337,"raked":3338,"secre":3339,"ident":3340,"idnight":3341,"cere":3342,"Ġdeal":3343,"Ġdealt":3344,"Ġrel":3345,"Ġreborn":3346,"Ġrefle":3347,"Ġrevelation":3348,"locity":3349,"omach":3350,"unk":3351,"unsu":3352,"unrest":3353,"unbound":3354,"ili":3355,"ils":3356,"ilit":3357,"ilence":3358,"ilty":3359,"ambush":3360,"ask":3361,"ased":3362,"asion":3363,"asite":3364,"Ġstr":3365,"Ġstay":3366,"Ġstri":3367,"Ġstakes":3368,"Ġstage":3369,"Ġstalking":3370,"Ġstupid":3371,"Ġstomach":3372,"Ġmem":3373,"Ġmetal":3374,"Ġfort":3375,"Ġforth":3376,"Ġforced":3377,"Ġforgotten":3378,"antichrist":3379,"lect":3380,"fetti":3381,"andon":3382,"anding":3383,"alled":3384,"etic":3385,"rival":3386,"Ġwhile":3387,"adjust":3388,"âĢħall":3389,"âĢħmy":3390,"âĢħlost":3391,"âĢħcle":3392,"âĢħinto":3393,"âĢħpower":3394,"Ġsour":3395,"Ġdeity":3396,"Ġdelic":3397,"Ġfuel":3398,"Ġshot":3399,"Ġshrine":3400,"outlines":3401,"liqu":3402,"lifes":3403,"ored":3404,"isting":3405,"ender":3406,"Ġval":3407,"Ġvac":3408,"Ġvoice":3409,"Ġchill":3410,"Ġcheap":3411,"Ġcharge":3412,"ests":3413,"esty":3414,"shit":3415,"show":3416,"shell":3417,"shot":3418,"laugh":3419,"Ġworking":3420,"embrace":3421,"Ġwarnings":3422,"Ġcompul":3423,"Ġfair":3424,"Ġfacil":3425,"Ġspree":3426,"pts":3427,"Ġimper":3428,"Ġrid":3429,"Ġhail":3430,"Ġunit":3431,"Ġunfore":3432,"Ġendure":3433,"Ġcontempt":3434,"Ġcontrolled":3435,"Ġsole":3436,"Ġwhats":3437,"Ġseve":3438,"cial":3439,"Ġraid":3440,"Ġrazors":3441,"Ġwants":3442,"spread":3443,"spring":3444,"Ġdisorder":3445,"Ġdisarray":3446,"Ġdismember":3447,"Ġsabb":3448,"Ġsavage":3449,"Ġmanne":3450,"Ġmanipul":3451,"Ġmaniac":3452,"oked":3453,"Ġskies":3454,"rained":3455,"Ġplea":3456,"Ġplays":3457,"condemned":3458,"Ġexhil":3459,"Ġextermination":3460,"Ġswine":3461,"Ġsweep":3462,"Ġswatter":3463,"Ġsweat":3464,"Ġblank":3465,"osing":3466,"awaken":3467,"forcing":3468,"quin":3469,"bser":3470,"Ġroad":3471,"Ġroot":3472,"aggress":3473,"udge":3474,"Ġdecorated":3475,"Ġlets":3476,"Ġvictorious":3477,"Ġgraves":3478,"Ġbegat":3479,"Ġpreced":3480,"Ġprepare":3481,"Ġprogress":3482,"scream":3483,"scene":3484,"scattered":3485,"Ġfreeze":3486,"Ġheretic":3487,"ween":3488,"phic":3489,"Ġhunting":3490,"perver":3491,"peration":3492,"ualty":3493,"Ġrivers":3494,"Ġcares":3495,"justified":3496,"bloods":3497,"satanic":3498,"guilty":3499,"Ġsmooth":3500,"Ġdriving":3501,"Ġdesperation":3502,"angels":3503,"Ġstanding":3504,"Ġattrition":3505,"Ġcrypts":3506,"Ġresidual":3507,"dec":3508,"Ġvelocity":3509,"Ġinfractions":3510,"cret":3511,"mines":3512,"Ġguns":3513,"Ġgunshot":3514,"ocaly":3515,"Ġcorrupt":3516,"Ġdemanding":3517,"disinteg":3518,"Ġquick":3519,"Ġquite":3520,"Ġtortured":3521,"Ġcrest":3522,"Ġcreatures":3523,"Ġknew":3524,"Ġsomeone":3525,"Ġsomewhere":3526,"Ġsons":3527,"haha":3528,"Ġslavery":3529,"Ġtwo":3530,"Ġlaws":3531,"Ġrotting":3532,"descend":3533,"dement":3534,"hells":3535,"contam":3536,"Ġsickle":3537,"Ġaff":3538,"Ġcrime":3539,"Ġcrimes":3540,"coales":3541,"coils":3542,"Ġbullshit":3543,"Ġdisciple":3544,"brings":3545,"Ġadore":3546,"Ġdrained":3547,"Ġbook":3548,"Ġplaying":3549,"licting":3550,"petence":3551,"petrified":3552,"smash":3553,"tyr":3554,"Ġapolo":3555,"Ġapocaly":3556,"Ġburied":3557,"Ġcommence":3558,"Ġimpale":3559,"pulsory":3560,"Ġsocietys":3561,"Ġclash":3562,"Ġcrushing":3563,"Ġendlessly":3564,"Ġdrags":3565,"confronting":3566,"Ġpurpose":3567,"cities":3568,"Ġerasing":3569,"Ġpurest":3570,"Ġfills":3571,"Ġflowers":3572,"Ġcool":3573,"judgment":3574,"incess":3575,"incisions":3576,"Ġseal":3577,"Ġwounded":3578,"Ġpossess":3579,"Ġdeception":3580,"Ġvirus":3581,"Ġvirgin":3582,"Ġhappened":3583,"spirit":3584,"Ġquestion":3585,"cerated":3586,"Ġbrutal":3587,"Ġclothing":3588,"Ġignite":3589,"Ġshelf":3590,"Ġsheers":3591,"terminate":3592,"Ġcleanse":3593,"Ġlimb":3594,"Ġexistence":3595,"these":3596,"Ġmoral":3597,"Ġtrigger":3598,"Ġlaced":3599,"Ġbeliefs":3600,"Ġspirits":3601,"Ġspiritual":3602,"Ġatrocity":3603,"piercing":3604,"Ġfiery":3605,"Ġbible":3606,"Ġboundaries":3607,"Ġpersu":3608,"Ġperson":3609,"asphyx":3610,"Ġwarmth":3611,"Ġsecrets":3612,"fearing":3613,"Ġentrance":3614,"Ġsolution":3615,"Ġacts":3616,"Ġbarbaric":3617,"Ġunleash":3618,"Ġunleashed":3619,"Ġintensity":3620,"crucify":3621,"litter":3622,"relentless":3623,"Ġmortal":3624,"Ġflaws":3625,"Ġcasualty":3626,"âĢħhand":3627,"specting":3628,"explain":3629,"Ġmutilated":3630,"Ġpacification":3631,"Ġfrenzied":3632,"bedded":3633,"brutal":3634,"involve":3635,"Ġashes":3636,"Ġmayhem":3637,"Ġbrightens":3638,"Ġcele":3639,"Ġpolicy":3640,"Ġliberties":3641,"radical":3642,"americon":3643,"Ġknights":3644,"Ġmelts":3645,"Ġresurrection":3646,"faith":3647,"heaven":3648,"helpless":3649,"sophy":3650,"vival":3651,"Ġsingle":3652,"Ġministry":3653,"Ġdaughters":3654,"Ġtarget":3655,"anyone":3656,"Ġintervals":3657,"Ġpunishment":3658,"Ġpresent":3659,"Ġanimation":3660,"rafing":3661,"Ġrelieve":3662,"Ġbelongs":3663,"unleash":3664,"ferent":3665,"Ġsplatter":3666,"Ġunwind":3667,"Ġsupremacy":3668,"spikes":3669,"Ġdissection":3670,"offspring":3671,"Ġobservance":3672,"desecrated":3673,"Ġperpetuated":3674,"Ġsubjective":3675,"Ġvirtue":3676,"Ġfools":3677,"Ġcountrys":3678,"Ġexpected":3679,"Ġhypoc":3680,"Ġincestuous":3681,"avidity":3682,"buried":3683,"diminish":3684,"diff":3685,"ilosophy":3686,"promiscuous":3687,"potent":3688,"sifting":3689,"sniper":3690,"satisfy":3691,"inherit":3692,"Ġwisdom":3693,"Ġdifferent":3694,"Ġtongue":3695,"Ġtainted":3696,"Ġbeauty":3697,"Ġblazes":3698,"Ġbattles":3699,"enthroned":3700,"Ġcenturies":3701,"Ġhurt":3702,"Ġincompetence":3703,"Ġnestled":3704,"Ġpredat":3705,"Ġeviscerated":3706,"secrets":3707,"unsuspecting":3708,"ambushed":3709,"rivalry":3710,"adjusting":3711,"âĢħcleanse":3712,"Ġdelicate":3713,"liquid":3714,"laughing":3715,"Ġunforeseen":3716,"Ġdismemberment":3717,"Ġsabbath":3718,"Ġmannequin":3719,"Ġmanipulation":3720,"Ġexhilaration":3721,"Ġblanket":3722,"aggressive":3723,"Ġresiduals":3724,"coalesce":3725,"Ġapologies":3726,"19":3727,"?!":3728,"ah":3729,"az":3730,"air":3731,"ape":3732,"aper":3733,"aped":3734,"aping":3735,"ban":3736,"bath":3737,"cst":3738,"cla":3739,"came":3740,"center":3741,"campaign":3742,"called":3743,"det":3744,"del":3745,"dys":3746,"div":3747,"dled":3748,"days":3749,"ek":3750,"een":3751,"eous":3752,"ewing":3753,"fea":3754,"fed":3755,"fal":3756,"fest":3757,"frust":3758,"foc":3759,"ffect":3760,"fals":3761,"faction":3762,"go":3763,"gun":3764,"grow":3765,"gree":3766,"grance":3767,"hine":3768,"home":3769,"hard":3770,"hung":3771,"ian":3772,"iance":3773,"ible":3774,"iph":3775,"ianity":3776,"ioc":3777,"iano":3778,"kri":3779,"lin":3780,"lum":3781,"lucifer":3782,"ming":3783,"men":3784,"med":3785,"mess":3786,"mass":3787,"machine":3788,"mult":3789,"money":3790,"mumm":3791,"milit":3792,"non":3793,"nic":3794,"nal":3795,"nards":3796,"neman":3797,"nesty":3798,"over":3799,"obser":3800,"pat":3801,"por":3802,"pri":3803,"pest":3804,"pres":3805,"pull":3806,"prot":3807,"publ":3808,"rity":3809,"rations":3810,"richard":3811,"rantic":3812,"ser":3813,"sca":3814,"sna":3815,"sery":3816,"six":3817,"saries":3818,"siph":3819,"ted":3820,"tight":3821,"tot":3822,"tru":3823,"tem":3824,"try":3825,"tality":3826,"taken":3827,"trying":3828,"treach":3829,"trapped":3830,"ues":3831,"usion":3832,"vious":3833,"voking":3834,"walking":3835,"wanting":3836,"witness":3837,"wielding":3838,"ya":3839,"ylum":3840,"zomb":3841,"Ġide":3842,"Ġverbal":3843,"Ġ??":3844,"iny":3845,"inally":3846,"oun":3847,"outh":3848,"Ġthresh":3849,"Ġthrashing":3850,"Ġthunder":3851,"Ġsed":3852,"Ġsand":3853,"Ġsell":3854,"Ġsight":3855,"Ġsown":3856,"Ġsins":3857,"Ġsif":3858,"Ġskelet":3859,"Ġsanct":3860,"reign":3861,"revelation":3862,"Ġax":3863,"Ġacid":3864,"once":3865,"inging":3866,"Ġmain":3867,"Ġmist":3868,"Ġmour":3869,"Ġmarch":3870,"Ġmale":3871,"Ġmouth":3872,"Ġflo":3873,"Ġfam":3874,"Ġfist":3875,"Ġfurn":3876,"Ġflies":3877,"Ġfresh":3878,"Ġfading":3879,"Ġfrantic":3880,"Ġwr":3881,"Ġweep":3882,"Ġwiz":3883,"Ġwave":3884,"Ġwaves":3885,"Ġdar":3886,"Ġdick":3887,"Ġdull":3888,"Ġdwell":3889,"Ġtee":3890,"Ġtour":3891,"Ġtied":3892,"Ġtaking":3893,"Ġtable":3894,"Ġtact":3895,"Ġtimid":3896,"Ġtension":3897,"Ġtech":3898,"another":3899,"anneman":3900,"erm":3901,"ero":3902,"eration":3903,"ergy":3904,"erior":3905,"erlin":3906,"Ġbu":3907,"Ġbid":3908,"Ġball":3909,"Ġbath":3910,"Ġbeast":3911,"Ġberlin":3912,"ising":3913,"ision":3914,"eals":3915,"enger":3916,"Ġcat":3917,"Ġcro":3918,"Ġcal":3919,"Ġcir":3920,"Ġcul":3921,"Ġcease":3922,"Ġcenter":3923,"Ġcult":3924,"Ġcards":3925,"Ġhom":3926,"Ġhated":3927,"Ġhollow":3928,"Ġhoney":3929,"Ġhides":3930,"Ġhanneman":3931,"Ġlur":3932,"Ġless":3933,"Ġlucifer":3934,"itation":3935,"itize":3936,"itics":3937,"Ġtoll":3938,"Ġtoward":3939,"Ġtowers":3940,"Ġintern":3941,"Ġinnards":3942,"Ġnur":3943,"Ġnature":3944,"Ġnaked":3945,"Ġpat":3946,"Ġpend":3947,"Ġput":3948,"Ġpop":3949,"Ġpacks":3950,"stone":3951,"stare":3952,"stray":3953,"stained":3954,"steal":3955,"stility":3956,"rover":3957,"roove":3958,"velo":3959,"Ġgla":3960,"Ġglea":3961,"Ġgrip":3962,"Ġgrat":3963,"Ġgroove":3964,"arant":3965,"arish":3966,"arrives":3967,"arstruck":3968,"alf":3969,"alice":3970,"always":3971,"odul":3972,"imag":3973,"imination":3974,"imlessly":3975,"Ġev":3976,"Ġevol":3977,"Ġecst":3978,"Ġanoint":3979,"Ġannihilation":3980,"Ġmysery":3981,"Ġliar":3982,"raight":3983,"rades":3984,"seep":3985,"severing":3986,"ids":3987,"idst":3988,"idity":3989,"idden":3990,"idents":3991,"theter":3992,"verse":3993,"Ġisnt":3994,"Ġreper":3995,"Ġrevul":3996,"Ġreward":3997,"Ġregions":3998,"Ġredef":3999,"Ġrevenge":4000,"Ġreaper":4001,"Ġreek":4002,"Ġbell":4003,"Ġbecame":4004,"churn":4005,"chanting":4006,"charge":4007,"choking":4008,"Ġiron":4009,"omy":4010,"omination":4011,"Ġonto":4012,"unending":4013,"amy":4014,"amed":4015,"asy":4016,"asmic":4017,"Ġstake":4018,"Ġstory":4019,"Ġstrate":4020,"Ġstench":4021,"Ġstruck":4022,"Ġstrafing":4023,"Ġsteals":4024,"Ġkno":4025,"Ġforces":4026,"Ġforged":4027,"leg":4028,"anded":4029,"indication":4030,"earhead":4031,"essim":4032,"ety":4033,"rived":4034,"aded":4035,"adicate":4036,"addys":4037,"âĢħsp":4038,"âĢħwith":4039,"âĢħcan":4040,"âĢħby":4041,"âĢħdown":4042,"âĢħcoming":4043,"âĢħstare":4044,"âĢħarrives":4045,"Ġdegree":4046,"irror":4047,"Ġshort":4048,"Ġshare":4049,"Ġshaves":4050,"ruption":4051,"lives":4052,"livious":4053,"ores":4054,"rought":4055,"ister":4056,"endency":4057,"Ġvast":4058,"Ġvicious":4059,"Ġchar":4060,"Ġchasing":4061,"Ġchemical":4062,"Ġchap":4063,"Ġchair":4064,"she":4065,"shock":4066,"shaped":4067,"Ġseem":4068,"Ġseeing":4069,"laze":4070,"Ġworst":4071,"olves":4072,"emies":4073,"Ġwars":4074,"Ġwarped":4075,"Ġwarriors":4076,"Ġcompulsory":4077,"Ġcomrades":4078,"Ġcanv":4079,"terror":4080,"Ġfact":4081,"ute":4082,"utch":4083,"Ġjesus":4084,"Ġspent":4085,"Ġspitting":4086,"Ġsperm":4087,"uled":4088,"ulum":4089,"Ġask":4090,"Ġasylum":4091,"Ġimbe":4092,"Ġimage":4093,"Ġran":4094,"Ġrust":4095,"Ġrange":4096,"Ġrides":4097,"Ġrhine":4098,"Ġungod":4099,"Ġunreal":4100,"Ġunseen":4101,"Ġpainless":4102,"things":4103,"eathen":4104,"Ġscored":4105,"umph":4106,"oph":4107,"open":4108,"opulate":4109,"Ġcontent":4110,"Ġcontrover":4111,"ortal":4112,"cience":4113,"arent":4114,"Ġameric":4115,"Ġamnesty":4116,"Ġsuper":4117,"Ġsuicidal":4118,"spill":4119,"speak":4120,"spells":4121,"spanning":4122,"spewing":4123,"spearhead":4124,"Ġgoals":4125,"Ġdisp":4126,"Ġdisgra":4127,"Ġdisplay":4128,"Ġdiscret":4129,"Ġdischarge":4130,"vessels":4131,"vengers":4132,"Ġsafe":4133,"eland":4134,"ired":4135,"Ġdoor":4136,"Ġconform":4137,"Ġconcent":4138,"Ġconceived":4139,"oks":4140,"arded":4141,"become":4142,"ours":4143,"pled":4144,"confetti":4145,"Ġexcur":4146,"Ġexcess":4147,"Ġswift":4148,"Ġblamed":4149,"Ġabst":4150,"Ġabound":4151,"Ġabortion":4152,"Ġabomination":4153,"Ġablaze":4154,"mentally":4155,"inking":4156,"Ġbreaking":4157,"Ġburned":4158,"icking":4159,"forward":4160,"quet":4161,"quench":4162,"Ġweve":4163,"accept":4164,"ificial":4165,"without":4166,"suf":4167,"such":4168,"suprem":4169,"Ġfaceless":4170,"Ġroam":4171,"Ġrosaries":4172,"ective":4173,"excit":4174,"explode":4175,"execution":4176,"extermination":4177,"Ġencircle":4178,"Ġengul":4179,"Ġenergy":4180,"Ġenemies":4181,"Ġfeatures":4182,"godless":4183,"Ġrushing":4184,"Ġthough":4185,"Ġsurvival":4186,"Ġfears":4187,"Ġpret":4188,"Ġproven":4189,"Ġprovid":4190,"Ġproblem":4191,"scorch":4192,"scarstruck":4193,"Ġalter":4194,"Ġfinish":4195,"Ġleg":4196,"Ġlethal":4197,"weve":4198,"Ġbride":4199,"Ġbrink":4200,"Ġembers":4201,"Ġembedded":4202,"abandon":4203,"phony":4204,"Ġtermin":4205,"Ġterrified":4206,"perpet":4207,"blit":4208,"blical":4209,"blitz":4210,"pulsing":4211,"ualize":4212,"Ġripped":4213,"Ġrival":4214,"Ġcatheter":4215,"Ġstops":4216,"Ġlooks":4217,"bloodfest":4218,"satanas":4219,"cantation":4220,"tured":4221,"Ġsmile":4222,"Ġbleeds":4223,"Ġheld":4224,"Ġdesign":4225,"enseless":4226,"Ġpride":4227,"Ġdestiny":4228,"Ġobsess":4229,"everybody":4230,"Ġourselves":4231,"ready":4232,"Ġwatches":4233,"ashbacks":4234,"Ġattempt":4235,"Ġattraction":4236,"risy":4237,"Ġarrived":4238,"ensitize":4239,"Ġreserves":4240,"devi":4241,"turned":4242,"Ġyes":4243,"Ġveter":4244,"Ġinfamous":4245,"Ġinflicting":4246,"Ġinfamy":4247,"whats":4248,"create":4249,"mankind":4250,"system":4251,"Ġdamage":4252,"Ġhostility":4253,"Ġhooks":4254,"Ġblinds":4255,"Ġcorroding":4256,"Ġintimid":4257,"Ġpoor":4258,"Ġpoison":4259,"Ġgrown":4260,"Ġsociopath":4261,"dism":4262,"disease":4263,"dispers":4264,"Ġslit":4265,"Ġslide":4266,"Ġmerge":4267,"Ġmassive":4268,"Ġturned":4269,"Ġquench":4270,"Ġqueen":4271,"Ġoverthrown":4272,"Ġoverturned":4273,"Ġprayers":4274,"artificial":4275,"Ġrealm":4276,"Ġrealized":4277,"Ġthrilling":4278,"Ġsomething":4279,"niquet":4280,"angulation":4281,"iah":4282,"Ġlawless":4283,"Ġgotta":4284,"Ġnightmarish":4285,"desire":4286,"desensitize":4287,"Ġconfine":4288,"controll":4289,"Ġsickness":4290,"Ġcrashing":4291,"Ġspreads":4292,"covering":4293,"Ġdistant":4294,"Ġlords":4295,"impose":4296,"imposing":4297,"Ġdevotion":4298,"Ġdeviant":4299,"bration":4300,"branded":4301,"dogs":4302,"faceless":4303,"Ġadorn":4304,"Ġperishment":4305,"Ġpersec":4306,"cancer":4307,"smiles":4308,"Ġtrait":4309,"Ġtrail":4310,"theyll":4311,"Ġimmune":4312,"Ġimmortal":4313,"Ġimpure":4314,"Ġunderstand":4315,"Ġscarred":4316,"Ġattacks":4317,"Ġpsycho":4318,"Ġpsychology":4319,"Ġsenseless":4320,"Ġclimb":4321,"Ġguards":4322,"Ġguarant":4323,"ploding":4324,"visualize":4325,"Ġcarrying":4326,"Ġelimination":4327,"Ġpleasant":4328,"consisten":4329,"consfea":4330,"prince":4331,"Ġmock":4332,"Ġleading":4333,"Ġerase":4334,"Ġeradicate":4335,"Ġserv":4336,"realizing":4337,"Ġacross":4338,"rotting":4339,"Ġreturning":4340,"entering":4341,"attacking":4342,"denied":4343,"survive":4344,"Ġwouldnt":4345,"Ġcost":4346,"Ġphilosophy":4347,"Ġreaching":4348,"Ġbetween":4349,"Ġseeks":4350,"mindless":4351,"paraly":4352,"incised":4353,"Ġsatisfaction":4354,"âĢħyourself":4355,"rugg":4356,"Ġhappen":4357,"spirits":4358,"Ġcaptures":4359,"Ġresistance":4360,"bitter":4361,"clou":4362,"clutch":4363,"Ġzero":4364,"Ġclosing":4365,"versive":4366,"Ġignorance":4367,"Ġstreet":4368,"Ġassass":4369,"Ġobscen":4370,"Ġhelplessly":4371,"Ġstrengthen":4372,"bidden":4373,"propaganda":4374,"provoking":4375,"silence":4376,"twisting":4377,"Ġsenses":4378,"Ġhesitate":4379,"Ġpenance":4380,"Ġsounds":4381,"Ġdefiance":4382,"blinding":4383,"blinded":4384,"Ġcriminally":4385,"Ġserenity":4386,"blackened":4387,"flank":4388,"flashbacks":4389,"running":4390,"Ġmedioc":4391,"Ġfarther":4392,"Ġtriumph":4393,"Ġbathing":4394,"Ġpassed":4395,"Ġkey":4396,"Ġatrocities":4397,"Ġextre":4398,"Ġprophetic":4399,"Ġslaughtered":4400,"afraid":4401,"cility":4402,"riddled":4403,"regime":4404,"Ġmaids":4405,"Ġwaited":4406,"Ġbiblical":4407,"Ġoppressed":4408,"Ġharlots":4409,"Ġnumbers":4410,"Ġpiercing":4411,"Ġshreds":4412,"Ġsecret":4413,"defying":4414,"Ġenslavement":4415,"Ġfriends":4416,"infernal":4417,"Ġsolitude":4418,"Ġsadistic":4419,"strike":4420,"Ġplagues":4421,"Ġdamnations":4422,"Ġintensify":4423,"Ġpools":4424,"corpses":4425,"cussions":4426,"Ġ92":4427,"Ġwitchery":4428,"Ġdidnt":4429,"Ġpulling":4430,"Ġgreater":4431,"Ġremain":4432,"Ġremains":4433,"Ġbeats":4434,"Ġbeaten":4435,"Ġvision":4436,"Ġdissidents":4437,"Ġconstantly":4438,"exploring":4439,"Ġlaughs":4440,"Ġpacifies":4441,"Ġfrenzy":4442,"appro":4443,"appar":4444,"homicide":4445,"homicidal":4446,"Ġappease":4447,"Ġapparent":4448,"Ġmotive":4449,"Ġfragrance":4450,"Ġwindow":4451,"Ġweary":4452,"Ġhanging":4453,"Ġpulse":4454,"Ġpulsing":4455,"Ġdevils":4456,"shattering":4457,"opathy":4458,"subversive":4459,"Ġsymphony":4460,"Ġcleansation":4461,"filled":4462,"harlots":4463,"ritually":4464,"reflections":4465,"Ġwasteland":4466,"Ġdrift":4467,"enjoying":4468,"Ġleather":4469,"Ġpesticide":4470,"Ġghosts":4471,"Ġequal":4472,"rapes":4473,"adulating":4474,"âĢħconform":4475,"Ġsavior":4476,"pleasing":4477,"Ġexcites":4478,"psychopathy":4479,"devast":4480,"Ġoverdose":4481,"Ġcrawl":4482,"infiltration":4483,"Ġimpaling":4484,"Ġidiot":4485,"randomly":4486,"bombard":4487,"breeds":4488,"fatality":4489,"flowing":4490,"fantasy":4491,"gregation":4492,"generals":4493,"oblivious":4494,"wasnt":4495,"repeating":4496,"Ġmartial":4497,"Ġtrickles":4498,"erilize":4499,"Ġinitiation":4500,"Ġpounding":4501,"Ġgerman":4502,"Ġrelate":4503,"iliar":4504,"Ġstrike":4505,"Ġmembers":4506,"Ġfortune":4507,"Ġsources":4508,"Ġcompulsions":4509,"Ġfacilities":4510,"Ġimperfection":4511,"udgeon":4512,"Ġprecedence":4513,"perversions":4514,"demented":4515,"contaminating":4516,"Ġaffliction":4517,"tyrant":4518,"Ġapocalyptic":4519,"Ġpersuasion":4520,"Ġcelebration":4521,"faithless":4522,"Ġhypocrisy":4523,"diffused":4524,"potential":4525,"Ġpredators":4526,"liquidate":4527,"banished":4528,"clawing":4529,"deterior":4530,"delay":4531,"divine":4532,"false":4533,"focation":4534,"falsified":4535,"guns":4536,"growing":4537,"hungry":4538,"krieg":4539,"messenger":4540,"multi":4541,"mummified":4542,"priests":4543,"pestilence":4544,"president":4545,"public":4546,"scavengers":4547,"snap":4548,"siphon":4549,"tighten":4550,"total":4551,"tempor":4552,"treachery":4553,"zombies":4554,"Ġideology":4555,"Ġ???":4556,"Ġthreshold":4557,"Ġsifts":4558,"Ġsanctuary":4559,"Ġmourn":4560,"Ġmalevol":4561,"Ġfurnace":4562,"Ġwizards":4563,"Ġdarling":4564,"Ġteeth":4565,"Ġtourniquet":4566,"Ġtactics":4567,"Ġbidding":4568,"Ġcrooked":4569,"Ġhomicide":4570,"Ġnurtured":4571,"Ġpendulum":4572,"Ġglare":4573,"Ġgratification":4574,"odulistic":4575,"imagine":4576,"Ġecstasy":4577,"Ġrepercussions":4578,"Ġrevulsion":4579,"Ġstrategy":4580,"Ġknock":4581,"Ġchemicals":4582,"Ġchapel":4583,"Ġimbecility":4584,"Ġcontroversy":4585,"Ġdisgrace":4586,"Ġdiscretion":4587,"Ġexcursions":4588,"supreme":4589,"excitation":4590,"scorched":4591,"perpetual":4592,"blitzkrieg":4593,"systematic":4594,"dispersed":4595,"Ġpersecution":4596,"Ġguarantee":4597,"consfearacy":4598,"flanked":4599,"Ġmediocrity":4600,"94":4601,"?)":4602,"ax":4603,"aotic":4604,"ault":4605,"ba":4606,"bro":4607,"bas":4608,"bate":4609,"bation":4610,"bol":4611,"bel":4612,"bered":4613,"brate":4614,"beneath":4615,"base":4616,"cas":4617,"core":4618,"col":4619,"cos":4620,"cord":4621,"cade":4622,"cery":4623,"cite":4624,"cern":4625,"cries":4626,"cination":4627,"cency":4628,"crashing":4629,"dam":4630,"dist":4631,"dream":4632,"dep":4633,"dang":4634,"drown":4635,"drug":4636,"drive":4637,"eve":4638,"ecy":4639,"fin":4640,"fam":4641,"find":4642,"fate":4643,"full":4644,"front":4645,"field":4646,"fening":4647,"faded":4648,"gou":4649,"ges":4650,"gen":4651,"gly":4652,"gence":4653,"gains":4654,"gaged":4655,"gaping":4656,"hou":4657,"hon":4658,"hor":4659,"hit":4660,"hand":4661,"hide":4662,"hate":4663,"hend":4664,"hollow":4665,"hiding":4666,"heathen":4667,"io":4668,"ira":4669,"ient":4670,"ires":4671,"ipping":4672,"iety":4673,"jea":4674,"jured":4675,"klo":4676,"ket":4677,"kull":4678,"last":4679,"lude":4680,"lature":4681,"limb":4682,"mun":4683,"might":4684,"mut":4685,"move":4686,"meric":4687,"midnight":4688,"mpled":4689,"modulistic":4690,"ng":4691,"nce":4692,"none":4693,"nel":4694,"ox":4695,"ood":4696,"och":4697,"othing":4698,"osion":4699,"oose":4700,"ocy":4701,"oblit":4702,"pay":4703,"pur":4704,"pli":4705,"pass":4706,"pac":4707,"pnot":4708,"pters":4709,"piano":4710,"pessim":4711,"ric":4712,"sa":4713,"sor":4714,"sce":4715,"sure":4716,"sign":4717,"sound":4718,"search":4719,"save":4720,"slit":4721,"senseless":4722,"skull":4723,"till":4724,"ties":4725,"takes":4726,"tally":4727,"tang":4728,"touch":4729,"tip":4730,"tanning":4731,"ticking":4732,"uck":4733,"uph":4734,"uced":4735,"ucl":4736,"uaries":4737,"uished":4738,"vir":4739,"vied":4740,"vicious":4741,"won":4742,"wer":4743,"wake":4744,"wish":4745,"waiting":4746,"would":4747,"waste":4748,"wasting":4749,"witch":4750,"xic":4751,"xious":4752,"xiety":4753,"yre":4754,"yielding":4755,"Ġ5":4756,"Ġvery":4757,"Ġice":4758,"ĠâĢĻ":4759,"Ġ19":4760,"thy":4761,"thrives":4762,"thinking":4763,"ints":4764,"inated":4765,"inning":4766,"inco":4767,"inental":4768,"incantation":4769,"inconsisten":4770,"injured":4771,"Ġthra":4772,"Ġthrust":4773,"Ġsat":4774,"Ġsom":4775,"Ġsun":4776,"Ġsad":4777,"Ġsure":4778,"Ġsold":4779,"Ġsits":4780,"Ġsum":4781,"Ġsells":4782,"Ġsift":4783,"Ġsimple":4784,"Ġsitting":4785,"Ġsoldier":4786,"Ġsores":4787,"reen":4788,"reve":4789,"reborn":4790,"refied":4791,"recite":4792,"Ġactions":4793,"Ġahead":4794,"Ġavenge":4795,"youd":4796,"onent":4797,"onizing":4798,"Ġyoud":4799,"inger":4800,"Ġmur":4801,"Ġmak":4802,"Ġment":4803,"Ġmad":4804,"Ġmorn":4805,"Ġmud":4806,"Ġmia":4807,"Ġmortality":4808,"Ġmissing":4809,"Ġmidnight":4810,"Ġmask":4811,"Ġmalice":4812,"Ġmirror":4813,"Ġmira":4814,"Ġfed":4815,"Ġfil":4816,"Ġfas":4817,"Ġfake":4818,"Ġfine":4819,"Ġfol":4820,"Ġfive":4821,"Ġfade":4822,"Ġfield":4823,"Ġfram":4824,"Ġwins":4825,"Ġwrist":4826,"Ġwalking":4827,"Ġwelcome":4828,"Ġdan":4829,"Ġdice":4830,"Ġdry":4831,"Ġdig":4832,"Ġdag":4833,"Ġdue":4834,"Ġdaddys":4835,"lled":4836,"Ġtur":4837,"Ġtide":4838,"Ġtem":4839,"Ġtender":4840,"Ġtired":4841,"esqu":4842,"essels":4843,"ansh":4844,"anarchy":4845,"anxious":4846,"erate":4847,"eros":4848,"eria":4849,"erotic":4850,"ats":4851,"atose":4852,"atia":4853,"Ġbit":4854,"Ġbed":4855,"Ġbom":4856,"Ġbad":4857,"Ġballs":4858,"Ġbatter":4859,"Ġbased":4860,"Ġbrought":4861,"Ġbansh":4862,"Ġow":4863,"Ġoce":4864,"Ġoil":4865,"Ġorifice":4866,"Ġopport":4867,"islature":4868,"eared":4869,"encing":4870,"enary":4871,"engul":4872,"enforcing":4873,"envelo":4874,"engaged":4875,"Ġcam":4876,"Ġcere":4877,"Ġcore":4878,"Ġcut":4879,"Ġcum":4880,"Ġcove":4881,"Ġcities":4882,"Ġhit":4883,"Ġhind":4884,"Ġhel":4885,"Ġhiding":4886,"Ġhalf":4887,"Ġhidden":4888,"oric":4889,"Ġlou":4890,"Ġlad":4891,"Ġlame":4892,"Ġlace":4893,"Ġlashing":4894,"Ġluck":4895,"Ġlinger":4896,"itic":4897,"itar":4898,"ital":4899,"itud":4900,"itical":4901,"itions":4902,"edience":4903,"edoph":4904,"Ġtoes":4905,"Ġtown":4906,"Ġinject":4907,"Ġincre":4908,"Ġinvis":4909,"Ġincit":4910,"Ġindu":4911,"Ġinner":4912,"Ġnon":4913,"Ġnum":4914,"Ġnice":4915,"Ġpin":4916,"Ġpill":4917,"Ġpent":4918,"Ġpity":4919,"Ġpot":4920,"Ġpile":4921,"Ġpaste":4922,"Ġpoll":4923,"Ġpubl":4924,"Ġpyre":4925,"Ġpedoph":4926,"stly":4927,"strive":4928,"strugg":4929,"stood":4930,"steria":4931,"roam":4932,"robb":4933,"rodu":4934,"veil":4935,"ional":4936,"icing":4937,"icit":4938,"icated":4939,"Ġgri":4940,"Ġgir":4941,"Ġgold":4942,"Ġgets":4943,"Ġgran":4944,"Ġgiven":4945,"Ġgiving":4946,"armore":4947,"arily":4948,"arters":4949,"alone":4950,"alys":4951,"gho":4952,"iming":4953,"iment":4954,"impl":4955,"immortality":4956,"imstone":4957,"Ġeith":4958,"Ġecon":4959,"Ġevent":4960,"Ġepit":4961,"Ġelect":4962,"Ġeffect":4963,"Ġeuph":4964,"Ġannihil":4965,"Ġanxiety":4966,"ract":4967,"rage":4968,"racing":4969,"racting":4970,"set":4971,"sever":4972,"seizing":4973,"secur":4974,"ception":4975,"Ġdear":4976,"Ġdeals":4977,"vert":4978,"Ġrele":4979,"Ġrelive":4980,"Ġrepuls":4981,"Ġrevel":4982,"Ġrespect":4983,"Ġrejection":4984,"losy":4985,"Ġbeer":4986,"Ġbeating":4987,"Ġbecause":4988,"che":4989,"ched":4990,"chaotic":4991,"aying":4992,"urs":4993,"unch":4994,"unlike":4995,"unadul":4996,"unimposing":4997,"unafraid":4998,"unveil":4999}